[PAD]
[UNK]
[CLS]
[SEP]
[MASK]
!
"
#
$
%
&
'
(
)
*
+
,
-
.
/
0
1
2
3
4
5
6
7
8
9
:
;
<
=
>
?
@
A
B
C
D
E
F
G
H
I
J
K
L
M
N
O
P
Q
R
S
T
U
V
W
X
Y
Z
[
\
]
^
_
`
a
b
c
d
e
f
g
h
i
j
k
l
m
n
o
p
q
r
s
t
u
v
w
x
y
z
{
|
}
~
§
©
®
°
±
²
³
´
·
¹
×
ä
é
ö
÷
̈
̣
̥
α
β
μ
а
б
в
г
е
з
и
к
л
н
о
п
р
с
т
ы
ь
я
๑
ᄒ
ᆞ
–
—
―
‘
’
“
”
•
․
‥
…
‧
′
″
※
‼
₁
₂
₩
℃
ℓ
™
Ⅰ
Ⅱ
Ⅲ
Ⅳ
Ⅴ
↑
→
↓
↔
↘
↙
⇒
∙
∼
≪
≫
⊙
⋅
①
②
③
④
⑤
⑥
⑦
⑧
⑨
⑴
⑵
⑶
⑷
ⓐ
ⓑ
ⓒ
─
━
│
┃
└
├
■
□
▣
▪
▫
▲
△
▶
▷
▼
▽
◀
◆
◇
◈
○
◎
●
★
☆
☎
☏
☕
☞
☺
♀
♂
♠
♡
♣
♥
✅
✌
✔
✨
❗
❣
❤
➡
⠀
⭐
。
〃
〈
〉
《
》
「
」
『
』
【
】
〓
〔
〕
〰
い
か
て
に
の
り
る
ん
ニ
ン
・
ー
ㄱ
ㄲ
ㄴ
ㄷ
ㄸ
ㄹ
ㅁ
ㅂ
ㅃ
ㅅ
ㅆ
ㅇ
ㅈ
ㅉ
ㅊ
ㅋ
ㅌ
ㅍ
ㅎ
ㅏ
ㅐ
ㅑ
ㅓ
ㅔ
ㅕ
ㅗ
ㅛ
ㅜ
ㅠ
ㅡ
ㅣ
ㅤ
ㆍ
㈎
㈏
㈐
㈑
㈔
㈜
㉠
㉡
㉢
㉣
㉮
㉯
㉰
㎉
㎍
㎎
㎏
㎒
㎓
㎖
㎘
㎚
㎛
㎜
㎝
㎞
㎡
㎢
㎥
㎸
㎾
㎿
㏃
㏄
㏈
㏊
一
丁
七
丈
三
上
下
不
丑
且
世
丘
丙
丞
中
丸
丹
主
乃
久
之
乎
乘
乙
九
也
乡
乳
乾
亂
了
事
二
于
云
互
五
井
亞
亡
交
亥
亦
亨
享
京
亭
亮
人
仁
今
介
仕
他
付
仙
代
令
以
仰
仲
件
任
企
伊
伏
伐
休
会
伯
伸
似
伽
但
位
低
住
佐
何
余
佛
作
佳
使
來
例
侍
供
依
侯
侵
便
係
俊
俗
保
信
修
俱
倂
倉
個
倍
倒
候
借
値
倫
倭
假
偉
偏
停
健
側
偶
傅
備
傳
債
傷
傾
像
僕
僞
僧
價
儀
億
儒
償
優
允
元
兄
充
兆
先
光
克
免
兒
入
內
全
兩
兪
八
公
六
兮
共
兵
其
具
典
兼
冊
再
冠
冥
冬
凉
凡
凶
出
刀
分
切
刊
刑
列
初
判
別
利
到
制
券
刺
刻
則
前
剛
副
割
創
劃
劇
劉
劍
力
功
加
助
勇
勒
動
務
勝
勞
勢
勤
勳
勸
勿
包
化
北
匠
區
十
千
升
午
半
卑
卒
卓
協
南
博
卜
占
卦
卯
印
危
却
卷
卽
卿
厚
原
去
參
又
及
友
反
叔
取
受
叢
口
古
句
只
召
可
台
史
右
司
各
合
吉
同
名
后
吏
向
君
否
含
吳
吾
呂
告
周
呪
味
呼
命
和
咸
哀
品
哈
哉
員
哭
哲
唐
唯
唱
商
問
啓
善
喜
喪
單
嘉
嘗
器
嚴
四
回
因
固
国
圈
國
圍
園
圓
圖
團
土
在
圭
地
址
坂
均
坊
坐
坡
坤
坪
垂
型
城
域
執
培
基
堂
堅
堯
報
場
塔
塚
塵
境
墓
增
墨
墳
壁
壇
壓
壤
士
壬
壯
壽
夏
夕
外
多
夜
夢
大
天
太
夫
央
失
夷
奇
奈
奉
奎
奏
契
奪
女
奴
好
如
妃
妄
妓
妙
妻
始
姑
姓
委
姜
姬
威
婆
婚
婢
婦
子
孔
字
存
孝
孟
季
孤
学
孫
學
宇
守
安
宋
完
宏
宗
官
宙
定
宜
客
宣
室
宮
宰
害
宴
家
容
宿
寂
寄
寅
密
富
寒
察
寡
實
寧
審
寫
寬
寶
寸
寺
封
射
將
專
尉
尊
尋
對
導
小
少
尖
尙
就
尹
尺
尼
尾
局
居
屈
屋
展
層
履
屬
屯
山
岐
岡
岩
岳
岸
峯
峰
峴
島
崇
崎
崔
嶺
巖
川
州
巡
工
左
巨
巫
差
己
已
巳
巴
市
布
希
帖
帝
帥
師
席
帳
帶
常
幕
干
平
年
幸
幹
幻
幼
幽
幾
庄
床
序
底
店
庚
府
度
座
庫
庭
庵
庶
康
庸
廉
廟
廢
廣
廳
延
廷
建
弊
式
弓
弔
引
弗
弘
弟
弱
張
强
弼
彈
彌
形
彦
彩
彭
影
役
彼
往
征
待
律
後
徐
徒
得
從
御
復
微
徵
德
徹
徽
心
必
忌
忍
志
忘
忠
快
念
忽
怒
思
急
性
怨
怪
恐
恒
恥
恨
恩
恭
息
悅
悟
患
悲
情
惑
惟
惠
惡
惱
想
愁
意
愚
愛
感
愼
慈
態
慕
慣
慧
慮
慶
慾
憂
憲
應
懷
戊
戌
成
我
戒
或
戰
戱
戴
戶
房
所
手
才
打
扶
批
承
技
投
抗
折
抵
拒
拘
招
拜
括
持
指
振
捕
授
掌
排
採
探
接
推
提
揚
換
揭
援
損
摠
摩
撫
播
撰
擇
擊
操
擔
據
擧
擬
攝
支
收
改
攻
放
政
故
效
敍
敎
敏
救
敗
敢
散
敦
敬
整
敵
數
文
斗
料
斥
斬
斯
新
斷
方
於
施
旅
族
旗
旣
日
旨
早
旭
昆
昇
昌
明
易
昔
星
映
春
昭
是
時
晉
晋
晦
晩
普
景
智
暗
暴
曆
曉
曰
曲
更
書
曹
曺
曾
替
最
會
月
有
朋
服
朔
望
朝
期
木
未
末
本
朱
朴
李
材
村
杖
杜
束
杭
東
松
板
林
果
枝
某
染
柔
柱
柳
査
校
株
核
根
格
桂
桃
案
桑
桓
梁
梅
條
梵
棄
棟
森
植
楊
楚
業
極
榮
構
槪
樂
樓
標
樞
模
樣
樹
橋
機
橫
檀
檢
權
次
欲
欺
欽
款
歌
歐
止
正
此
步
武
歲
歷
歸
死
殊
殘
段
殷
殺
殿
毅
母
每
毒
比
毛
氏
民
氣
水
氷
永
求
汗
汝
江
池
決
沈
沒
沖
沙
河
油
治
沼
況
泉
法
波
注
泰
泳
洋
洗
洙
洛
洞
津
洪
洲
活
派
流
浙
浦
浩
浪
浮
海
消
涉
淑
淡
淨
淫
淮
深
淳
淵
混
淸
減
渡
測
港
游
渾
湖
湯
源
準
溝
溪
溫
滅
滿
漁
漏
演
漢
漸
潔
潘
潛
潤
潭
潮
澤
濟
濤
濱
瀋
灣
火
災
炎
炳
烈
烏
焉
無
然
煙
煥
照
煩
熊
熙
熟
熱
燈
燒
燕
營
燮
爭
爲
爵
父
爾
片
版
牌
牙
牛
牧
物
特
犬
犯
狀
狂
狗
猶
獄
獨
獸
獻
玄
率
玉
王
珍
珠
班
現
球
理
琴
瑞
環
甘
甚
生
産
用
甫
田
由
甲
申
男
町
界
留
略
番
異
畵
當
畿
疆
疏
疑
疾
病
症
痛
療
癸
登
發
白
百
的
皆
皇
皮
益
盛
盜
盟
盡
監
盤
盧
目
直
相
省
眉
看
眞
真
眠
眼
着
督
矢
矣
知
短
石
砂
砲
破
硏
碑
碧
碩
確
磁
磨
示
社
祀
祐
祖
祝
神
祠
祥
票
祭
祿
禁
禍
福
禪
禮
禹
秀
私
秉
秋
科
秘
租
秦
秩
移
稅
程
種
稱
稷
稻
稿
穀
穆
積
穴
究
空
突
窓
窮
立
章
童
端
競
竹
笑
符
第
筆
等
答
策
箕
算
管
節
範
篇
築
簡
簿
籍
米
粉
精
系
紀
約
紅
紋
納
純
紙
級
素
紫
細
紹
終
組
結
給
統
絲
絶
經
綠
維
綱
網
緊
緖
線
緣
編
縣
總
織
繩
繼
續
缺
罪
置
罰
署
羅
羊
美
群
義
羽
翁
翊
習
翰
翼
老
考
者
而
耕
耳
耶
聖
聚
聞
聯
聲
職
聽
肅
肉
肝
肥
育
背
胎
胡
能
脈
脚
脫
腦
腸
腹
臟
臣
臥
臨
自
至
致
臺
與
興
舊
舌
舍
舜
舞
舟
航
般
舶
船
艦
良
色
芝
花
芳
苑
若
苦
英
茂
范
茶
草
荊
荒
荷
莊
莫
菅
菊
菜
菩
華
菴
萬
落
葉
著
葛
董
葬
蒙
蒼
蓋
蓮
蔡
蔣
蕭
薄
薛
薦
薩
藏
藝
藤
藥
藩
蘇
蘭
虎
處
虛
虞
號
蛇
蜀
融
血
衆
行
衍
術
街
衛
衡
衣
表
衰
袁
被
裁
裏
裕
補
裝
裵
製
複
襄
襲
西
要
覆
覇
見
規
視
親
覺
覽
觀
角
解
觸
言
計
討
訓
託
記
訟
訥
訪
設
許
訴
註
詐
評
詞
試
詩
話
誌
認
語
誠
誤
說
誰
課
調
談
請
論
諦
諫
諭
諸
謀
謂
謙
講
謝
證
識
譜
警
譯
議
護
讀
變
讓
谷
豆
豈
豊
象
豪
豫
貞
負
財
貢
貧
貨
貪
貫
責
貴
買
貸
費
貿
賀
賃
資
賈
賊
賓
賜
賞
賠
賢
賣
賤
賦
質
賴
贈
贊
赤
走
起
超
越
趙
足
跡
路
蹟
身
車
軌
軍
軒
載
輔
輕
輝
輪
輯
輸
輿
轉
辛
辨
辭
辯
辰
農
迅
迎
近
返
迦
述
迷
追
退
送
逆
通
速
造
連
週
進
逸
遂
遇
遊
運
過
道
達
違
遠
遡
適
遲
遷
選
遺
遼
避
還
邊
邑
那
邦
邪
邱
郎
郞
郡
部
郭
都
鄕
鄧
鄭
酉
配
酒
酸
醉
醫
采
釋
里
重
野
量
金
釜
針
釣
鉉
銀
銅
銘
錄
錢
錦
錫
錯
鍾
鎬
鎭
鏡
鐘
鐵
鑑
镇
長
門
開
閑
間
閔
閣
關
阪
防
阿
陀
附
降
限
陝
院
陣
除
陰
陳
陵
陶
陸
陽
隆
隊
隋
階
際
障
隨
險
隱
雄
雅
集
雖
雙
雜
離
難
雨
雪
雲
雷
電
需
震
露
靈
靑
靖
靜
非
面
革
韓
音
韻
頂
項
順
須
頌
頓
領
頭
題
額
顔
願
類
顧
顯
風
飛
食
飮
飯
養
餘
館
首
香
馬
駐
騎
驗
驚
驛
骨
體
高
髮
鬪
鬼
魂
魏
魔
魚
魯
鮮
鳥
鳩
鳳
鳴
鴻
鵬
鶴
鷄
鹽
鹿
麗
麟
麻
黃
黑
默
點
黨
鼎
鼓
鼻
齊
齋
齒
齡
龍
龜
가
각
간
갇
갈
갉
감
갑
값
갓
갔
강
갖
갗
같
갚
갛
개
객
갠
갤
갬
갭
갯
갰
갱
갸
갹
걀
걍
걔
거
걱
건
걷
걸
검
겁
것
겄
겅
겉
겊
겋
게
겐
겔
겜
겝
겟
겠
겡
겨
격
겪
견
결
겸
겹
겻
겼
경
곁
계
곗
고
곡
곤
곧
골
곪
곯
곰
곱
곳
공
곶
과
곽
관
괄
괌
광
괘
괜
괭
괴
괸
굉
교
굣
구
국
군
굳
굴
굵
굶
굼
굽
굿
궁
궂
궈
권
궐
궜
궤
귀
귄
귈
귐
귓
규
균
귤
그
극
근
글
긁
금
급
긋
긍
긔
기
긱
긴
길
긿
김
깁
깃
깄
깅
깊
까
깍
깎
깐
깔
깜
깝
깟
깠
깡
깥
깨
깬
깰
깻
깼
깽
꺄
꺅
꺼
꺽
꺾
껀
껄
껌
껍
껏
껐
껑
께
껫
껴
꼈
꼐
꼬
꼭
꼰
꼴
꼼
꼽
꼿
꽁
꽂
꽃
꽈
꽉
꽝
꽤
꽥
꽹
꾀
꾸
꾹
꾼
꿀
꿇
꿈
꿉
꿋
꿍
꿎
꿔
꿨
꿩
꿰
뀌
뀐
뀔
뀜
뀝
뀨
끄
끈
끊
끌
끓
끔
끕
끗
끙
끝
끼
끽
낀
낄
낌
낍
낏
낑
나
낙
낚
난
낟
날
낡
남
납
낫
났
낭
낮
낯
낱
낳
내
낵
낸
낼
냄
냅
냇
냈
냉
냐
냑
냔
냘
냠
냥
너
넉
넋
넌
널
넓
넘
넙
넛
넜
넝
넣
네
넥
넨
넬
넴
넵
넷
넸
넹
녀
녁
년
념
녔
녕
녘
녜
노
녹
논
놀
놈
놉
놋
농
높
놓
놔
놨
뇌
뇨
뇰
뇸
뇽
누
눅
눈
눌
눔
눕
눗
눙
눠
눴
뉘
뉜
뉠
뉴
늄
늉
느
늑
는
늘
늙
늠
능
늦
늪
늬
니
닉
닌
닐
님
닙
닛
닝
닢
다
닥
닦
단
닫
달
닭
닮
닳
담
답
닷
당
닻
닿
대
댁
댄
댈
댐
댑
댓
댔
댕
댜
더
덕
던
덜
덟
덤
덥
덧
덩
덫
덮
데
덱
덴
델
뎀
뎁
뎃
뎅
뎌
뎐
뎠
뎬
도
독
돈
돋
돌
돔
돕
돗
동
돛
돠
돤
돼
됏
됐
되
된
될
됨
됩
됫
됬
됴
두
둑
둔
둘
둠
둡
둣
둥
둬
뒀
뒈
뒤
뒷
뒹
듀
듄
듈
듐
드
득
든
듣
들
듦
듬
듭
듯
등
듸
디
딕
딘
딛
딜
딤
딥
딧
딨
딩
딪
따
딱
딴
딸
땀
땃
땄
땅
땋
때
땐
땔
땜
땠
땡
떄
떠
떡
떤
떨
떫
떳
떴
떵
떻
떼
뗀
뗄
뗏
뗐
또
똑
똘
똥
똬
뙇
뙤
뚜
뚝
뚠
뚤
뚫
뚱
뛰
뛴
뛸
뜀
뜨
뜩
뜬
뜯
뜰
뜸
뜹
뜻
띄
띈
띌
띔
띕
띠
띤
띨
띵
라
락
란
랄
람
랍
랏
랐
랑
랖
랗
래
랙
랜
랠
램
랩
랫
랬
랭
랴
략
량
러
럭
런
럴
럼
럽
럿
렀
렁
렇
레
렉
렌
렐
렘
렙
렛
렝
려
력
련
렬
렴
렵
렷
렸
령
례
롄
로
록
론
롤
롬
롭
롯
롱
롸
뢰
뢴
룀
료
룡
루
룩
룬
룰
룸
룹
룻
룽
뤄
뤘
뤠
뤼
뤽
륀
륄
류
륙
륜
률
륨
륭
르
륵
른
를
름
릅
릇
릉
릎
릏
리
릭
린
릴
림
립
릿
링
마
막
만
많
맏
말
맑
맘
맙
맛
망
맞
맡
맣
매
맥
맨
맬
맴
맵
맷
맸
맹
맺
먀
머
먹
먼
멀
멈
멋
멍
멎
멓
메
멕
멘
멜
멤
멥
멧
멩
며
멱
면
멸
몄
명
몇
모
목
몫
몬
몰
몸
몹
못
몽
뫄
뫼
묏
묘
무
묵
묶
문
묻
물
묽
뭄
뭅
뭇
뭉
뭍
뭐
뭔
뭘
뭡
뭣
뮈
뮌
뮐
뮤
뮨
뮬
뮴
므
믄
믈
믐
미
믹
민
믿
밀
밈
밉
밋
밌
밍
및
밑
바
박
밖
반
받
발
밝
밟
밤
밥
밧
방
밭
배
백
밴
밸
뱀
뱁
뱃
뱅
뱉
뱌
버
벅
번
벌
범
법
벗
벙
벚
베
벡
벤
벧
벨
벰
벳
벵
벼
벽
변
별
볍
볏
볐
병
볕
볜
보
복
볶
본
볼
봄
봅
봇
봉
봐
봣
봤
봬
뵀
뵈
뵌
뵐
뵙
뵤
부
북
분
붇
불
붉
붐
붑
붓
붕
붙
뷔
뷜
뷰
뷴
뷸
브
븐
블
비
빅
빈
빌
빔
빕
빗
빙
빚
빛
빠
빡
빤
빨
빰
빱
빳
빴
빵
빻
빼
빽
뺀
뺄
뺌
뺏
뺐
뺑
뺨
뻐
뻑
뻔
뻗
뻘
뻣
뻤
뻥
뻬
뼈
뼉
뼘
뼛
뽀
뽁
뽈
뽐
뽑
뽕
뾰
뿅
뿌
뿍
뿐
뿔
뿜
뿡
쁘
쁜
쁠
쁨
쁩
삐
삑
삔
삘
삥
사
삭
삯
산
살
삵
삶
삼
삽
삿
샀
상
샅
새
색
샌
샐
샘
샛
샜
생
샤
샥
샨
샬
샴
샵
샷
샹
섀
서
석
섞
선
섣
설
섬
섭
섯
섰
성
섶
세
섹
센
셀
셈
셉
셋
셌
셍
셔
션
셜
셤
셧
셨
셩
셰
셴
셸
솅
소
속
솎
손
솔
솜
솝
솟
송
솥
솨
쇄
쇠
쇤
쇳
쇼
숀
숄
숍
숏
숑
수
숙
순
숟
술
숨
숩
숫
숭
숯
숱
숲
숴
쉈
쉐
쉑
쉔
쉘
쉬
쉭
쉰
쉴
쉼
쉽
쉿
슈
슉
슌
슐
슘
슛
슝
스
슥
슨
슬
슭
슴
습
슷
승
시
식
신
싣
실
싫
심
십
싯
싱
싶
싸
싹
싼
쌀
쌈
쌉
쌌
쌍
쌓
쌔
쌕
쌘
쌤
쌩
썅
써
썩
썬
썰
썸
썹
썻
썼
썽
쎄
쎈
쎌
쏘
쏙
쏜
쏟
쏠
쏭
쏴
쐈
쐐
쐬
쑈
쑤
쑥
쑨
쑹
쒀
쒸
쓰
쓱
쓴
쓸
씀
씁
씌
씐
씨
씩
씬
씰
씸
씹
씻
씽
아
악
안
앉
않
알
앎
앓
암
압
앗
았
앙
앞
애
액
앤
앨
앰
앱
앳
앴
앵
야
약
얀
얄
얇
얌
얍
얏
양
얕
얗
얘
어
억
언
얹
얻
얼
얽
엄
업
없
엇
었
엉
엊
엌
엎
에
엑
엔
엘
엠
엡
엣
엥
여
역
엮
연
열
엷
염
엽
엾
엿
였
영
옅
옆
옇
예
옌
옐
옙
옛
오
옥
온
올
옭
옮
옳
옴
옵
옷
옹
옻
와
왁
완
왈
왑
왓
왔
왕
왜
왠
왤
외
왼
요
욕
욘
욜
욤
욥
욧
용
우
욱
운
울
움
웁
웃
웅
워
웍
원
월
웜
웟
웠
웡
웨
웩
웬
웰
웸
웹
위
윅
윈
윌
윔
윕
윗
윙
유
육
윤
율
윰
윳
융
윷
으
윽
은
을
읊
음
읍
읏
응
의
읜
이
익
인
일
읽
잃
임
입
잇
있
잉
잊
잌
잎
자
작
잔
잖
잘
잠
잡
잣
잤
장
잦
재
잭
잰
잴
잼
잽
잿
쟀
쟁
쟈
쟌
쟝
쟤
저
적
전
절
젊
점
접
젓
정
젖
제
젝
젠
젤
젬
젭
젯
져
젼
졋
졌
졍
졔
조
족
존
졸
좀
좁
좃
종
좆
좇
좋
좌
좔
좡
좥
좦
죄
죌
죗
죠
죤
죵
주
죽
준
줄
줌
줍
줏
중
줘
줫
줬
쥐
쥔
쥘
쥬
쥰
쥴
즁
즈
즉
즌
즐
즘
즙
증
지
직
진
질
짊
짐
집
짓
징
짖
짙
짚
짜
짝
짠
짢
짤
짧
짬
짭
짰
짱
째
짹
쨈
쨋
쨌
쨍
쨔
쨩
쩌
쩍
쩐
쩔
쩜
쩝
쩡
쩨
쪄
쪘
쪼
쪽
쫀
쫄
쫌
쫑
쫒
쫓
쫘
쫙
쬐
쭈
쭉
쭌
쭐
쭘
쭙
쭝
쭤
쮸
쯔
쯤
쯧
찌
찍
찐
찔
찜
찝
찡
찢
찧
차
착
찬
찮
찰
참
찹
찻
찼
창
찾
채
책
챈
챌
챔
챕
챗
챘
챙
챠
챤
챱
처
척
천
철
첨
첩
첫
청
체
첵
첸
첼
쳇
쳉
쳐
쳔
쳣
쳤
초
촉
촌
촐
촘
촛
총
촤
촨
촬
촵
최
쵸
추
축
춘
출
춤
춥
춧
충
춰
췄
췌
취
췬
츄
츈
츠
측
츤
츨
츰
츳
층
치
칙
친
칠
칡
침
칩
칫
칭
카
칵
칸
칼
캄
캅
캇
캉
캐
캑
캔
캘
캠
캡
캣
캤
캥
캬
커
컥
컨
컫
컬
컴
컵
컷
컸
컹
케
켁
켄
켈
켐
켑
켓
켕
켜
켠
켤
켰
코
콕
콘
콜
콤
콥
콧
콩
콰
콱
콴
콸
쾅
쾌
쾨
쾰
쿄
쿠
쿡
쿤
쿨
쿰
쿱
쿵
쿼
퀀
퀄
퀑
퀘
퀭
퀴
퀵
퀸
퀼
큐
큘
크
큭
큰
클
큼
큽
킁
키
킥
킨
킬
킴
킵
킷
킹
타
탁
탄
탈
탉
탐
탑
탓
탔
탕
태
택
탠
탤
탬
탭
탯
탰
탱
탸
터
턱
턴
털
텀
텁
텃
텄
텅
테
텍
텐
텔
템
텝
텟
텡
텨
텼
톈
토
톡
톤
톨
톰
톱
톳
통
퇴
툇
투
툭
툰
툴
툼
퉁
퉈
퉜
퉤
튀
튄
튈
튕
튜
튠
튤
튬
트
특
튼
튿
틀
틈
틋
틔
티
틱
틴
틸
팀
팁
팅
파
팍
팎
판
팔
팜
팝
팟
팠
팡
팥
패
팩
팬
팰
팸
팹
팻
팼
팽
퍼
퍽
펀
펄
펌
펍
펐
펑
페
펙
펜
펠
펨
펩
펫
펭
펴
편
펼
폄
폈
평
폐
포
폭
폰
폴
폼
폿
퐁
푀
표
푯
푸
푹
푼
풀
품
풋
풍
퓌
퓨
퓰
퓸
프
픈
플
픔
픕
피
픽
핀
필
핌
핍
핏
핑
하
학
한
할
핥
함
합
핫
항
해
핵
핸
핼
햄
햅
햇
했
행
햐
향
허
헉
헌
헐
험
헙
헛
헝
헤
헥
헨
헬
헴
헵
헷
헹
헿
혀
혁
현
혈
혐
협
혓
혔
형
혜
호
혹
혼
홀
홈
홉
홋
홍
홑
화
확
환
활
홧
황
홰
홱
횃
회
획
횔
횟
횡
효
후
훅
훈
훌
훑
훔
훗
훙
훠
훤
훨
훼
휀
휑
휘
휙
휜
휠
휩
휴
휼
흄
흉
흐
흑
흔
흘
흙
흠
흡
흣
흥
흩
희
흰
히
힉
힌
힐
힘
힙
힛
힝
金
老
魯
論
樂
不
兩
良
女
年
連
禮
龍
劉
流
六
李
理
️
！
＂
＄
％
＆
（
）
＊
＋
，
－
．
：
；
＜
＝
＞
？
［
］
＿
ｇ
ｍ
ｔ
｜
～
｢
｣
･
￦
🌟
🌷
🌸
🌿
🍃
🍓
🍞
🍫
🍳
🍴
🎁
🎉
🎶
🏃
🏻
🏼
🐶
🐷
🐽
👀
👈
👉
👊
👋
👍
👏
👧
👩
👶
👻
💃
💓
💕
💖
💗
💘
💙
💚
💛
💜
💦
💪
📌
🔥
🖤
😀
😁
😂
😃
😄
😅
😆
😉
😊
😋
😌
😍
😎
😏
😖
😘
😙
😚
😛
😝
😢
😥
😭
😱
😳
🙂
🙄
🙆
🙈
🙊
🙋
🙌
🙏
🤔
🤗
🤣
🤤
🤦
🤩
🤭
🥰
🧡
##원
##들
##이
##o
##r
##e
##k
##a
##H
##O
##B
##A
##티
##n
##t
##v
##s
##ㅜ
##드
##디
##어
##린
##급
##성
##호
##흡
##기
##감
##염
##는
##p
##m
##i
##노
##트
##북
##ㆍ
##관
##광
##여
##행
##권
##과
##장
##연
##구
##c
##l
##L
##u
##x
##7
##1
##0
##f
##g
##늘
##길
##스
##테
##나
##판
##사
##전
##문
##가
##단
##체
##에
##유
##학
##주
##청
##h
##d
##초
##상
##b
##식
##조
##르
##도
##액
##ㄹ
##동
##D
##C
##с
##о
##к
##и
##6
##2
##G
##I
##Q
##U
##E
##풍
##소
##P
##제
##셜
##리
##강
##를
##R
##은
##국
##시
##z
##네
##모
##라
##백
##위
##y
##산
##촌
##코
##파
##병
##오
##찬
##서
##S
##반
##풀
##양
##돌
##외
##업
##엔
##터
##인
##먼
##수
##정
##미
##희
##창
##봉
##신
##닐
##까
##요
##해
##질
##아
##으
##니
##천
##환
##경
##평
##향
##실
##화
##X
##비
##험
##검
##널
##밖
##T
##K
##재
##만
##품
##증
##맷
##다
##마
##바
##랏
##우
##면
##루
##매
##w
##무
##혼
##피
##물
##진
##포
##순
##와
##8
##타
##자
##V
##영
##W
##적
##지
##쳐
##열
##캐
##4
##5
##쿠
##선
##е
##р
##а
##н
##방
##회
##활
##숍
##거
##개
##입
##고
##j
##석
##홍
##출
##ы
##안
##느
##망
##려
##M
##프
##운
##각
##목
##의
##통
##굴
##뚝
##배
##로
##🤔
##😆
##투
##헌
##데
##없
##세
##히
##폰
##뱅
##킹
##범
##넬
##N
##엄
##항
##섭
##민
##부
##з
##я
##т
##в
##꽁
##팔
##레
##크
##욕
##톨
##○
##중
##란
##9
##3
##담
##보
##Y
##Z
##팅
##하
##합
##닷
##명
##한
##콜
##롤
##침
##q
##럭
##대
##교
##등
##을
##달
##랑
##베
##💗
##용
##킨
##날
##론
##온
##준
##형
##설
##긴
##락
##둘
##갑
##금
##술
##음
##푸
##🔥
##막
##처
##언
##종
##변
##추
##흥
##룻
##낮
##ㅇ
##ㅡ
##게
##탕
##걱
##꽂
##ㅠ
##너
##쎄
##치
##공
##숙
##박
##떠
##독
##내
##혀
##쓰
##브
##릭
##키
##ㅈ
##😊
##쟁
##패
##토
##두
##채
##율
##젠
##짜
##웃
##겨
##최
##즈
##편
##둑
##난
##력
##г
##왁
##뭇
##카
##일
##태
##머
##계
##층
##령
##본
##든
##격
##승
##표
##육
##률
##약
##좌
##놀
##옥
##웅
##쾨
##빙
##🏼
##발
##쿄
##팝
##벤
##б
##홀
##곳
##저
##래
##김
##군
##했
##F
##꺼
##펀
##좀
##당
##득
##납
##묘
##눈
##생
##럽
##ㅏ
##맞
##😘
##ㅁ
##악
##섬
##측
##익
##함
##넌
##웨
##엘
##덴
##햐
##름
##삼
##남
##덕
##픔
##불
##필
##건
##퍼
##축
##퇴
##알
##é
##심
##뚜
##틴
##렌
##그
##욥
##슈
##혁
##택
##겸
##극
##샨
##림
##확
##싶
##따
##끈
##결
##효
##♥
##송
##귀
##밀
##찰
##획
##말
##예
##왕
##손
##솝
##번
##현
##점
##취
##죄
##법
##분
##야
##😁
##🙊
##혔
##탈
##되
##었
##역
##차
##별
##객
##뼈
##농
##징
##류
##후
##팽
##속
##훼
##앙
##았
##링
##턴
##직
##러
##녀
##철
##월
##맘
##메
##암
##버
##셋
##견
##잘
##또
##껑
##챔
##빈
##ö
##힌
##텔
##커
##긋
##규
##할
##봐
##능
##헤
##겔
##둥
##슬
##작
##휴
##껴
##웬
##케
##ᆞ
##엽
##낙
##싯
##괴
##잡
##몽
##골
##훈
##룹
##슷
##답
##록
##ㅌ
##근
##슨
##셔
##힐
##튼
##맨
##책
##융
##뿐
##츠
##족
##년
##집
##ㅣ
##곡
##ㅋ
##씨
##쉬
##촨
##ㅓ
##협
##립
##럴
##움
##냐
##륨
##춘
##쇄
##겁
##혈
##페
##습
##닌
##깃
##듭
##났
##척
##울
##젼
##균
##련
##랙
##될
##릅
##엥
##새
##닉
##럼
##쁠
##임
##랩
##먹
##량
##잔
##워
##져
##꾸
##램
##잉
##황
##흐
##놔
##헨
##됩
##톤
##람
##댓
##줄
##꽃
##밍
##⑥
##퐁
##옹
##애
##닥
##낸
##총
##뻐
##춤
##J
##썩
##붙
##칼
##샷
##간
##읍
##촉
##똘
##앗
##🍃
##숀
##엇
##짓
##친
##억
##꿀
##맛
##붕
##켈
##닮
##참
##쾌
##핵
##ä
##벌
##뽁
##ㅑ
##ㅍ
##켜
##л
##볜
##텅
##놓
##늄
##굿
##님
##응
##꼴
##랜
##펙
##션
##윤
##벅
##끔
##씹
##댁
##랴
##갸
##흔
##뇸
##👍
##🏻
##💙
##렸
##더
##▼
##힘
##갯
##욱
##쎌
##틱
##멎
##잭
##❤
##댄
##뎠
##Ⅱ
##ㅂ
##ㄱ
##ㅅ
##ㄷ
##죽
##곤
##쌈
##궁
##갈
##료
##묻
##색
##째
##Ⅳ
##복
##→
##클
##접
##😛
##플
##텍
##걸
##잇
##랫
##멍
##밥
##폭
##폐
##좁
##센
##첸
##댕
##큐
##랗
##꽝
##렛
##콩
##깍
##ㅃ
##い
##て
##か
##탁
##폴
##받
##였
##쌔
##충
##혜
##ㄴ
##렁
##렐
##짱
##뜩
##뭉
##ь
##앱
##졸
##셧
##슴
##즉
##졌
##펩
##콘
##꼬
##눔
##홈
##몬
##륜
##죠
##빌
##п
##존
##른
##쇼
##탑
##념
##렬
##꾹
##딸
##팬
##덩
##냥
##특
##🙌
##묵
##ᄒ
##땅
##벽
##올
##밟
##깨
##옷
##살
##뇌
##촬
##텐
##볶
##벼
##퀴
##놈
##컷
##뜨
##쪽
##겡
##녹
##💛
##블
##깐
##완
##쥐
##쭙
##🌿
##횡
##룡
##😳
##💜
##싱
##누
##넷
##엌
##쉽
##런
##며
##례
##솔
##킴
##😝
##던
##절
##🎶
##줌
##허
##샤
##콕
##짐
##겐
##릴
##깡
##ㄲ
##왜
##봄
##넘
##좋
##깬
##🤣
##😂
##멘
##뽀
##💚
##👀
##💖
##튜
##룽
##덜
##젝
##빔
##얄
##맥
##뒤
##혐
##첩
##뮬
##룩
##ㅎ
##낌
##쁨
##뉘
##🧡
##댔
##쭉
##빵
##렴
##켓
##덧
##섯
##때
##꾼
##뒷
##똑
##같
##컵
##압
##솜
##굼
##콤
##앤
##논
##된
##빕
##틀
##휘
##늬
##돛
##の
##끼
##텟
##췌
##칭
##뿌
##😍
##🥰
##찻
##뻗
##딘
##뮤
##풋
##볼
##흉
##롱
##왈
##펜
##킷
##흠
##😄
##쿵
##잖
##💦
##젤
##롬
##찔
##싸
##첨
##に
##❗
##잠
##옌
##툴
##델
##샘
##탐
##탄
##낚
##릉
##숫
##즙
##욤
##줏
##칙
##ㅕ
##봤
##룬
##퀘
##룰
##글
##햇
##잎
##털
##챤
##얼
##찌
##펠
##꺽
##붓
##뱀
##갤
##웰
##칸
##궤
##😱
##😭
##≪
##💪
##쥘
##것
##졍
##탓
##💕
##🙈
##끌
##밭
##썽
##냉
##혹
##빅
##럿
##즘
##💓
##슐
##륙
##십
##ㅤ
##낼
##쭈
##홋
##돈
##팡
##윈
##갔
##턱
##렉
##눕
##왔
##싫
##랄
##듐
##큭
##곰
##릿
##딩
##ㅉ
##큰
##써
##놨
##템
##착
##겟
##앵
##끗
##삶
##😃
##떼
##껌
##둔
##썸
##겹
##△
##됨
##략
##롯
##겠
##샹
##셀
##높
##◇
##▣
##젓
##♡
##렵
##궜
##곽
##뇨
##🖤
##셰
##윳
##🤗
##쥔
##듀
##×
##즁
##낭
##캠
##닭
##넹
##륭
##😋
##끄
##녕
##쳣
##칫
##랭
##엉
##멀
##눅
##뜸
##쏘
##값
##핀
##헝
##뤼
##밴
##₩
##멋
##맡
##덤
##셉
##🤭
##④
##⑨
##⑦
##¹
##눌
##켰
##픽
##빛
##믹
##걔
##뽑
##줘
##갱
##냈
##못
##죵
##듬
##팀
##뎬
##＋
##빤
##꼼
##걀
##뉴
##켄
##빡
##뢰
##덮
##첼
##뷰
##잊
##몸
##츨
##숨
##껏
##슘
##핑
##엠
##컴
##셩
##깝
##얀
##쳤
##렘
##숭
##멧
##틸
##낫
##ん
##멸
##밤
##쫀
##꿈
##😚
##벨
##뚠
##툰
##엿
##Ⅰ
##️
##찐
##핫
##겼
##잴
##벙
##몰
##띠
##렙
##꼈
##😖
##쇠
##췬
##칠
##삭
##웠
##뎅
##옵
##딱
##괄
##쥬
##츈
##깔
##맹
##뇽
##젖
##쿨
##짝
##쩍
##■
##□
##넥
##컨
##듯
##룸
##꼭
##큘
##뀨
##냘
##롭
##있
##똥
##므
##쁘
##👏
##흑
##갖
##씽
##↑
##↓
##▷
##멜
##댜
##텀
##쉴
##ㅐ
##넨
##💃
##짬
##뽕
##젯
##귤
##킬
##빨
##÷
##톡
##찍
##랍
##띵
##뽈
##곱
##쑤
##쪄
##닝
##빠
##쑥
##갰
##먀
##ㅗ
##↘
##↙
##🙏
##츤
##폿
##윅
##팜
##쌍
##톈
##톰
##닛
##😀
##🌸
##툼
##헉
##홉
##캣
##궈
##숲
##빗
##괭
##둣
##즌
##🙄
##딴
##녜
##ㅔ
##팥
##댈
##쌀
##엾
##끝
##섰
##쯔
##펴
##킥
##퓨
##🍫
##긔
##쫄
##눙
##늦
##🌟
##셨
##읽
##꿩
##꾀
##쪼
##🐷
##😢
##삽
##뷴
##밝
##렇
##엑
##뿅
##께
##윽
##낄
##핍
##믈
##ㅊ
##겅
##늉
##늑
##텨
##큼
##샬
##🙂
##꿍
##렝
##웁
##뻔
##셸
##쾅
##쾰
##햄
##땡
##짭
##굉
##첫
##챘
##녘
##깽
##컬
##🍞
##흘
##낱
##볕
##믄
##많
##탱
##꼽
##펑
##훌
##싹
##꽈
##퍽
##밑
##씻
##겉
##꿔
##겻
##듦
##Ⅲ
##썰
##쿼
##ニ
##ー
##ン
##😎
##▽
##짤
##픈
##🎁
##븐
##뀌
##🤩
##ㅆ
##퉁
##👈
##👧
##샅
##⑧
##죌
##뭅
##왓
##🍓
##춰
##뱃
##엎
##츄
##뤄
##됏
##푼
##넴
##삐
##앨
##콰
##싼
##뎌
##떡
##◈
##펫
##콥
##쟝
##밸
##팩
##🍴
##깁
##🤤
##👊
##ㅛ
##💘
##칩
##㎡
##✨
##랐
##뻥
##튀
##횟
##🙆
##멈
##쉘
##찜
##잼
##홰
##닿
##줬
##뿔
##꽤
##돼
##밋
##괘
##랬
##벗
##씀
##겋
##윌
##섞
##👋
##듸
##셴
##り
##셈
##팠
##캇
##🤦
##꿎
##탠
##딜
##끽
##깅
##깜
##듈
##벚
##넝
##섹
##뚱
##씬
##●
##헬
##롄
##챈
##쮸
##👩
##る
##앞
##홧
##훔
##쁜
##밈
##α
##β
##긍
##닻
##헷
##및
##틈
##쓸
##솟
##③
##⑤
##짖
##샵
##🏃
##괜
##멕
##핸
##눴
##쯤
##닙
##횃
##쭝
##뚤
##쩨
##눠
##샐
##돋
##땐
##뤘
##숏
##봇
##맙
##킁
##쥴
##곶
##믿
##썬
##딕
##🐶
##옴
##쩌
##냅
##뛰
##돠
##쩔
##딥
##퓌
##돔
##｜
##㈑
##🌷
##깰
##퀼
##펭
##섀
##뫼
##묏
##륄
##딪
##떨
##샌
##귓
##낀
##│
##헴
##폼
##퓸
##쎈
##웟
##얌
##뿍
##쫌
##좃
##휼
##칵
##렀
##훙
##띤
##⋅
##⠀
##☆
##뺀
##쉰
##😌
##😏
##됴
##뮈
##윗
##끊
##깻
##떻
##쓴
##댐
##★
##😙
##맸
##톳
##텝
##땜
##귈
##쌩
##삿
##쿤
##갇
##썹
##늙
##캘
##넋
##😉
##켐
##웹
##빼
##▫
##옐
##뾰
##콴
##걍
##덫
##옆
##냔
##윰
##잤
##잣
##릎
##찼
##쌉
##쥰
##띔
##😅
##녁
##펨
##햅
##웩
##힉
##찾
##넛
##ㄸ
##°
##슛
##짠
##훗
##훠
##훤
##훨
##뿜
##☞
##켤
##헙
##～
##숑
##텡
##빚
##롸
##👶
##쨩
##팍
##☎
##쟌
##슥
##캉
##갚
##냄
##흙
##궐
##뻘
##벵
##돕
##괌
##깊
##랖
##륵
##벳
##꼰
##둬
##셍
##팸
##쉐
##윙
##펄
##푹
##뷸
##🍳
##즐
##헿
##̥
##쟈
##👉
##맵
##숯
##껍
##몇
##탬
##갓
##퀀
##렷
##톱
##츰
##꽹
##뎁
##⊙
##쳇
##뜀
##넉
##욘
##튬
##◎
##컹
##´
##덥
##펐
##늪
##굶
##맴
##쨍
##캡
##짚
##걷
##쐐
##헛
##쌓
##좦
##❣
##캥
##☕
##잽
##뜰
##헐
##땠
##챠
##켕
##봣
##갉
##쐬
##붐
##쏙
##듣
##뜯
##훅
##ⓒ
##섶
##튕
##얕
##🎉
##뀜
##눗
##😥
##좇
##솥
##빻
##껄
##슌
##㈜
##삯
##돗
##늠
##릇
##툭
##웜
##뀐
##∼
##혓
##웍
##놉
##챙
##촤
##▶
##쌤
##딤
##ⓑ
##놋
##핥
##맣
##짢
##갠
##뛸
##녔
##젊
##촵
##캬
##붉
##뛴
##펌
##탔
##캔
##쯧
##닦
##겜
##헹
##벡
##뺨
##꿉
##쒸
##◆
##솨
##팟
##끓
##뜻
##쵸
##▲
##쉼
##◀
##⑵
##⑶
##씰
##깎
##촐
##²
##굳
##힙
##씁
##춧
##툇
##뱌
##켠
##삔
##헥
##귄
##곗
##₂
##땀
##힝
##뵈
##②
##흰
##뭔
##쩜
##캄
##흄
##꺄
##핼
##됐
##뮴
##둡
##숴
##쏭
##캑
##않
##덱
##♣
##떤
##슝
##펼
##─
##㈐
##뻑
##똬
##욜
##숟
##뜬
##쑨
##㉢
##뎃
##뷔
##깥
##탉
##뎀
##졋
##흣
##좡
##쁩
##쫓
##쨔
##앉
##튄
##콧
##넓
##컥
##쿡
##밌
##닫
##뒀
##맏
##＝
##ｇ
##쉔
##탭
##샴
##쏠
##깄
##①
##넵
##찮
##쒀
##☺
##튈
##믐
##젬
##샜
##๑
##뭡
##̣
##앓
##챗
##뻬
##죗
##옙
##픕
##뤽
##얗
##낵
##찡
##뱁
##맺
##쌕
##딧
##왑
##싣
##겪
##힛
##뭐
##뵙
##옳
##팰
##뭄
##떵
##틔
##얍
##┃
##얽
##떳
##촛
##꽥
##뇰
##씌
##둠
##옇
##찝
##엣
##퀄
##밧
##쩐
##✌
##챱
##Ⅴ
##잌
##낯
##핏
##앰
##쭐
##썼
##닢
##＜
##빽
##곧
##🙋
##떴
##맑
##넣
##왤
##맬
##뼛
##냇
##탯
##첵
##얏
##≫
##콸
##욧
##멩
##뻤
##빱
##멓
##뱉
##꿇
##썅
##춥
##왼
##숩
##벰
##뮌
##얇
##ｍ
##볏
##뽐
##🐽
##봅
##쩝
##좆
##퉈
##굽
##겄
##궂
##〓
##랠
##삵
##꼿
##휙
##큽
##쑹
##팁
##팻
##♠
##쭌
##벧
##볍
##👻
##꼐
##푀
##μ
##씸
##됬
##췄
##̈
##삥
##닳
##³
##끕
##￦
##슭
##쿰
##숱
##퀸
##윷
##흩
##낏
##낳
##튠
##볐
##갛
##━
##±
##㎞
##팎
##졔
##쨌
##얘
##캅
##찹
##읏
##샛
##㎜
##켑
##핌
##쉈
##륀
##쿱
##쓱
##빰
##쬐
##헵
##씩
##끙
##㉠
##귐
##텁
##멤
##릏
##℃
##뤠
##냑
##∙
##딨
##뫄
##짙
##얹
##＞
##몫
##웡
##쇳
##쩡
##읜
##긱
##엡
##썻
##ⓐ
##짧
##뿡
##샥
##낍
##뚫
##삘
##좔
##섣
##앴
##떄
##듄
##탤
##옛
##챌
##넙
##곁
##탸
##➡
##낑
##갹
##굵
##퉤
##뀔
##깟
##뎐
##뒹
##뼉
##뗐
##샀
##쟤
##쭤
##빳
##냠
##틋
##뺑
##껫
##갬
##뉜
##띄
##윔
##쪘
##묶
##쏟
##쳉
##쳔
##굣
##덟
##셤
##앳
##젭
##밉
##├
##펍
##딛
##ℓ
##㎝
##떫
##됫
##휀
##뗀
##퓰
##뮨
##옮
##ｔ
##뗏
##짹
##쌌
##뜹
##휠
##탰
##뵤
##찢
##㉰
##봬
##폈
##쏴
##뒈
##쉿
##뙇
##쉑
##쭘
##멱
##킵
##뻣
##뺏
##꿋
##㉣
##㉡
##꿨
##폄
##줍
##쫑
##홱
##뷜
##뗄
##꺅
##몹
##퀑
##뙤
##잰
##뢴
##띈
##띌
##룀
##갗
##뺌
##솅
##낟
##줫
##튤
##뉠
##엮
##쉭
##뵌
##푯
##챕
##쨋
##꺾
##▪
##옻
##뺄
##깠
##컸
##텼
##칡
##댑
##앎
##횔
##콱
##땄
##촘
##뺐
##♀
##⇒
##띨
##땃
##휜
##붑
##갭
##⭐
##엷
##₁
##셌
##쑈
##짊
##㎖
##죤
##뭘
##퉜
##쏜
##팹
##뵐
##꽉
##✔
##껀
##얻
##↔
##퀵
##멥
##츳
##좥
##텃
##㈏
##⑷
##뀝
##잿
##켁
##㎏
##㏄
##몄
##빴
##긁
##홑
##삑
##쫙
##엊
##웸
##훑
##📌
##잃
##윕
##땔
##팼
##붇
##슉
##♂
##곯
##☏
##쌘
##묽
##돤
##잦
##뭍
##뼘
##뵀
##넸
##겊
##겝
##찧
##㈔
##꿰
##뭣
##숄
##넜
##㏊
##뮐
##텄
##컫
##쐈
##긿
##캤
##튿
##쇤
##㉯
##깼
##㎎
##낡
##™
##옭
##㈎
##휑
##㎥
##껐
##쨈
##└
##솎
##㎉
##㎍
##㉮
##괸
##왠
##읊
##©
##짰
##＄
##퀭
##쫒
##씐
##옅
##땋
으로
에서
##니다
한다
##00
지만
에게
라고
습니다
까지
20
면서
사람
다고
다는
는데
대한
아니
지난
우리
때문
라는
된다
위해
19
그러
201
부터
10
생각
한국
경우
문제
보다
대해
지역
200
시간
그리
정부
다른
이나
해야
미국
아이
가능
통해
함께
관계
시장
이상
서울
따라
사용
사업
그런
대표
기업
하나
시작
가지
가장
위원
경제
사실
사회
##통령
도록
정도
대통령
만들
중국
입니다
세계
그러나
필요
처럼
그리고
지금
해서
이번
교육
관련
경기
이후
이런
12
는다
의원
연구
다시
으며
으면
11
밝혔
들어
지원
위한
모두
상황
사이
정치
프로
조사
국민
합니다
일본
그렇
어서
거나
그래
국가
자신
다가
모든
##er
후보
결과
30
계획
##스트
대학
문화
투자
15
현재
다음
많이
특히
개발
기술
경찰
지난해
최근
신의
어요
동안
학교
이제
그것
민주
진행
회의
는지
어떤
국내
정보
이용
새로
18
나라
마음
이미
전문
이렇
관리
보이
정책
이유
모습
주장
나타
활동
금융
##on
과정
또한
이야
이날
설명
따르
기록
##대로
회사
사건
올해
##니까
대상
평가
결정
영화
너무
처음
중요
북한
100
##레이
관계자
이야기
한다는
당시
기자
##부터
여러
산업
학생
라며
운영
도시
##비스
다면
##an
수도
다양
나오
없이
##in
여기
바로
자리
국회
시키
여성
16
어떻
같이
##시아
13
상태
명의
내용
업체
새로운
계속
돌아
아무
서비스
선거
발생
자의
기준
##운데
예정
발표
##주의
알려
스타
오늘
가격
그녀
일부
의미
만큼
자기
##어나
보여
##으며
14
국제
선수
##인다
확인
제품
가운데
기관
포함
사랑
사진
방법
피해
방송
25
인터
판매
17
이름
삼성
더라
생활
아닌
인간
제공
부분
참여
199
그래서
규모
상대
어야
직접
떨어
역사
등의
달러
회장
물론
지방
추진
수준
요구
교수
환경
운동
가족
어려
증가
개인
역시
효과
준비
##000
##ar
경쟁
일반
입장
실제
분석
인데
이러
지적
##랜드
노동
50
인지
##en
##머니
은행
기대
공격
현대
이어
어느
##리아
구성
관심
시민
위원회
##or
영향
감독
공개
아직
결국
게임
성장
구조
전체
기간
생산
대로
친구
여자
한다고
최고
사고
자동
변화
마련
소비
소리
대해서
추가
행사
보인다
대부
등이
무엇
해도
##이트
성공
발전
강조
거의
##at
단체
그런데
##전히
자유
대의
책임
최대
전망
센터
또는
작품
이란
얘기
21
24
중심
이것
정말
인사
대부분
지나
부산
모르
강화
얼마
유지
##al
더욱
##버지
노력
특별
프로그
장관
로서
예상
##이스
수사
병원
존재
방식
한편
이해
공동
나가
대회
나온
지도
40
확대
##st
위해서
마다
경영
자체
프로그램
능력
선택
전국
그룹
주민
거래
역할
오후
남자
영국
누리
라면
어린
자연
22
정상
활용
시설
당신
건강
라도
만나
조직
##마트
국의
해당
검찰
기에
주택
건설
시대
제도
시스
개월
의해
상당
매우
##거리
기능
중앙
방문
하루
직원
대구
여행
외국
전략
보험
조금
인정
얼굴
니까
발견
해결
려고
23
##진다
분야
아서
올라
인가
가치
먼저
위원장
상품
전화
고객
주요
기본
정신
과학
드러
안전
미래
개선
마지
현실
##린다
로부터
시스템
거리
이루
적용
주의
등장
해외
시즌
대비
마지막
찾아
지지
##소리
내려
현장
##동안
관광
자동차
행정
머리
지속
밖에
아버지
아파
처리
보호
상승
계약
의견
통신
##으나
##ic
비롯
경험
혐의
카드
목표
보도
도움
조선
서로
고려
ㅋㅋ
유럽
##es
언론
27
26
위기
대신
마을
달리
##없이
공사
이전
위치
예산
어디
아들
28
들어가
판단
설치
작업
누구
스마트
198
실시
##라이
치료
비판
합의
전쟁
세상
장의
인천
아야
행동
는가
우려
##리스
위험
반대
##요일
부담
주인
##it
표현
공간
차이
민주당
려는
의사
업무
##어난
단계
행위
아파트
바람
인터넷
자료
##너지
으나
제작
사무
프랑
적극
##전자
기사
내년
집중
보내
##스터
나왔
기회
제대로
##he
성과
부족
느냐
자금
에선
평균
비용
음악
통합
차지
조정
협력
따라서
기존
동시
배우
시켜
앞서
정의
그냥
가까
대책
감사
만든
오전
아주
확보
어렵
동의
인해
광주
더라도
29
을까
우선
와의
##스로
논의
열린
결혼
##om
뉴스
음식
환자
안정
이사
연합
움직
출신
##른다
독일
보고
어머니
수익
공연
비해
##자리
인기
각각
방안
전문가
다만
공급
반면
인상
비교
성의
이뤄
제기
과거
분위
지구
60
데이
작가
사망
##el
그림
그대로
바라
보였
수출
검사
도입
##다는
논란
##무원
개혁
이동
모델
수가
차량
프랑스
스러
복지
대화
인식
스스로
디자
리그
사장
엄마
대출
2012
목소리
기억
목적
지난달
스럽
관한
전자
조치
의료
시행
TV
##레스
영업
##디어
선정
업계
오히
제시
현지
이르
분위기
오히려
브랜드
공식
언제
충분
이익
주변
참석
##인트
유명
시기
##이지
아래
청와
2013
예술
##민국
가진
매출
교통
##라인
소속
##le
글로
순간
금리
출시
##가지
일정
부모
신청
따른
바이
녀의
롯데
실제로
규정
가져
으로써
아요
조성
감소
분명
잘못
장애
상의
느낌
대한민국
재정
행복
국정
방향
핵심
기다
무슨
단지
도로
신문
부의
재판
간의
선생
고의
건물
글로벌
인도
LG
라이
소개
전혀
에너지
다르
청와대
나와
종합
네요
나타났
2010
비슷
가구
여전히
차례
31
전했
협의
질문
버리
얼마나
대응
2014
담당
요청
소비자
##ion
힘들
장기
나이
가입
면서도
제외
정당
인물
ㅋㅋㅋ
##is
가정
그동안
했으며
사의
됩니다
사라
주식
시험
더니
##어지
제주
대전
투표
도의
원인
연결
소득
그때
높이
2011
세요
공부
조건
##ou
진짜
검토
항공
여부
개정
사례
총리
노래
말씀
박근
70
SK
수입
##am
중소
의식
000
으로서
2000
인의
2015
정확
다니
전통
##아들
영상
부동
청소
훈련
시절
공무원
한테
개최
마치
전기
디자인
아침
희망
문학
각종
현상
러시아
으로부터
대형
으니
분기
일단
##이크
공장
197
알려졌
박근혜
제한
고자
어린이
참가
전시
##re
외교
승리
회복
반응
연기
강력
포인트
생명
교사
거기
내부
##기업
언급
##이션
주목
범죄
기획
변호
시도
피부
##어진
한다면
고용
속도
서의
기의
부동산
대선
걱정
협상
평화
체험
##어들
남성
##ol
##il
오래
오른
법원
##ing
등록
##디오
아마
불과
토론
체제
거든
혁신
지급
공공
덧붙
확실
살아
달라
단순
이곳
플레이
##학교
아시아
부인
제안
최종
구매
35
넘어
형태
신고
차원
본부
구체
프리
사상
##스크
진출
제의
여름
##BS
500
##다고
전환
수의
##나라
자원
규제
동물
그만
요즘
만드
어도
아름
##이드
세대
이미지
2009
체계
하락
반영
설립
스마트폰
정권
군사
타이
스포
청년
드라
전투
전달
불법
지요
지하
유치
수행
2008
80
어려운
시청
올림
무기
그럼
느끼
지식
본격
주로
자세
여야
고민
##수록
출연
펀드
올리
거부
당국
나무
자주
인구
지켜
민간
기념
의혹
외국인
증권
회담
비율
보유
자산
경기도
연금
##반기
불구
근데
스트
일으
수요
기반
노조
2016
우승
마찬
공원
파악
최소
마찬가지
세력
##우스
선물
듯이
구축
이상의
므로
엄청
대체
시의
시리
##므로
내놓
방침
작년
부르
무대
나타나
으면서
##et
독립
부정
받아들
축구
공정
보장
##운드
삼성전자
려면
잖아
영어
##자기
남북
개념
소설
발언
의회
지정
신경
여론
훨씬
올림픽
떠나
월드
보수
스포츠
예요
제조
특정
실패
가슴
근로
나온다
대변
시킨
캐릭
덧붙였
코스
중단
남편
주도
##페인
갈등
추천
원내
민족
성적
버스
활성
##러스
습니까
사태
일어나
당의
레이
전해
임금
부문
연구원
약속
시켰
구속
자본
조차
통과
고도
공항
캐릭터
체의
혹은
드라마
32
이게
하늘
호텔
인터뷰
절차
금지
고는
감정
소재
개의
의지
아프
아내
해석
오르
항상
다이
선언
심각
##ch
일자리
모양
경남
나의
인수
##프트
기초
편의
혼자
당연
사이트
형성
주제
통일
마리
시각
##드시
애플
화장
반드시
변경
196
정리
소식
세기
불안
광고
보통
변호사
주문
식품
분양
사항
학년
바다
촬영
인생
이끌
밝혀
제출
근무
특성
심의
했으나
그램
은데
만의
맛있
다며
회원
세월
매일
##nd
둘러
##ed
완전히
고등
유리
유통
45
계의
##as
원의
연속
이유로
거든요
노인
##어났
거쳐
##다가
통한
사전
국방
시리즈
더불
해요
도전
온라인
집단
접근
소송
불러
소유
원래
불리
진정
겨울
장면
장소
내리
재미
그래도
300
홍보
##리카
중인
권력
특징
죽음
수상
저녁
스러운
아의
협회
빠져
대중
도착
실적
살펴
심사
언어
브라
군의
하이
최초
심리
비중
확정
작용
으려
부부
김정
선발
대사
만족
는데요
36
차별
울산
선보
리의
만약
절대
열리
우주
갑자기
굉장
원칙
주가
##벤트
통화
##은행
가르
##BC
배치
빨리
영역
초등
총선
바뀌
판결
이벤트
중소기업
수술
신용
지배
데이터
졸업
2007
##스코
비행
라인
지키
등급
33
인근
고요
법인
신뢰
요소
성격
포기
그리스
유일
아름다
약간
모바
취업
청소년
##무리
측면
직장
쇼핑
본인
재산
##다면
께서
부상
의장
조합
된다는
향후
1000
##니아
건축
설정
우수
근거
스토
외부
스타일
##젝트
에요
모바일
교과
##대표
나머
시점
인력
떨어지
저희
위협
나머지
베이
법안
고통
##니스
본의
돌아가
교회
가량
대변인
강한
야당
종교
금액
특수
생기
학습
90
누가
계기
초기
태도
프로젝트
설계
상당히
2017
바꾸
휴대
의무
당선
드리
피해자
인권
굉장히
인제
임대
계열
물질
테러
기분
메시
법률
이론
마무리
위반
창조
사과
동일
일상
축제
구입
위의
알아
완성
주인공
무역
of
전력
컴퓨
경쟁력
중간
자녀
##학생
수업
올랐
강남
당하
나누
다리
빠르
바탕
앞두
마시
##ro
이하
미술
혜택
경북
지사
효율
폭력
원장
출발
충격
야구
나섰
거야
인한
서울시
##심히
문재
보상
추정
마이
달성
시킬
버렸
수용
예방
##ac
그게
운전
##아가
자치
수석
제일
과제
도와
바라보
명이
미치
34
뉴욕
한데
배경
강원
증거
##텐츠
문재인
원내대표
준다
요리
충분히
##의원
체육
지수
마케
장비
텔레
달려
커피
집행
컴퓨터
케이
자격
수원
문의
KT
창업
카메
비난
투입
작성
박사
보고서
측은
완전
the
대답
공천
가의
가득
대가
전용
요금
오랜
단의
부대
##20
38
이때
##준다
할인
아도
##ent
잠시
미사
##ri
##ad
봉사
##한다
보건
##스타
기다리
평소
매년
식사
겁니다
식의
연장
권리
이른
이거
확산
종의
마케팅
크리스
처벌
세금
크기
카페
의한
이의
이어지
신규
용의
5000
이탈
공유
표시
실험
##50
철학
해양
방어
느껴
시위
놀라
안타
대학교
분의
##거운
지시
열심히
오바
교체
부여
노동자
부장
헌법
지의
기구
의심
향해
채용
매장
미리
직업
기소
올려
주말
어려움
전반
을지
화학
수정
골프
업의
상담
줄이
메시지
나중
맞춰
물건
청구
재의
비밀
반복
##나무
범위
불편
요인
명령
국립
만한
37
2018
할지
된다고
고개
보조
알리
안보
##서관
종류
소통
전부
완화
네트
대기
보안
##고기
나선
긍정
2006
통제
허용
표정
인하
자랑
com
수수
눈물
리더
들여
강의
co
공화
불가
상징
번호
고속
길이
참고
혁명
ㅎㅎ
예비
세의
강제
가리
본다
마저
흔들
국토
194
의도
독자
##어요
in
순위
수단
방지
벌이
꾸준
##ot
장치
문서
전남
절반
진단
발사
##반도
살인
이라
국회의원
콘텐츠
kr
선고
폭발
자는
반발
블랙
출마
점점
가까운
창출
사정
48
연구소
파괴
연대
국무
전년
기계
슈퍼
로운
##us
회견
나서
걸쳐
무시
오바마
미디어
최저
철저
연출
와서
차단
한계
희생
소녀
적절
강하
제거
잖아요
기여
으니까
모른다
당장
체결
##화점
학부
파이
점검
늘어나
그러니까
아무리
이달
아빠
태양
카메라
똑같
선진
천만
펼쳐
동료
투자자
싸움
밝히
매력
대법
철도
연계
권의
응답
촉구
무료
##ul
만난
벗어나
는다는
클럽
대하
재단
일까
전형
##ig
지상
폐지
괜찮
선의
##ur
학원
모아
누군
물의
한반도
##워크
이명
아동
향상
비상
나갈
했었
##다보
사기
여러분
##리어
그린
위안
공단
무리
덕분
운용
상상
55
바닥
세트
실장
물리
기울
수많
채권
멤버
봐야
km
확장
##시스
나올
흐름
실천
스테
진다
39
아기
고양
IT
가까이
고급
다소
가로
##지어
전날
짜리
##ation
간단
패션
##od
##간다
##란드
게다가
고기
빠른
수학
월드컵
직후
분리
공기
할머니
뭔가
동기
페이스
어제
경고
42
2005
주기
수치
통해서
돌려
형식
주차
거대
가을
전의
##페이지
논리
아르
##id
실질
출판
유사
가수
진보
디지
홈페이지
소프트
##럼프
43
오픈
정체
미사일
왼쪽
메이
제재
성능
따로
상호
심지어
아닐
고서
결론
아예
움직임
식당
감안
진실
##ay
41
산의
당했
정비
균형
해소
아름다운
부탁
분류
두려
이용해
계산
연간
교육청
백화점
정규
##나라당
한나라당
구분
소장
공약
즐기
지점
초반
네트워크
구의
긴장
아닌가
고위
예측
결코
44
유가
관의
개입
생긴
든지
부지
정기
##ag
그럴
구역
실현
자율
구간
힘든
입주
##가락
##리트
체포
여당
움직이
기기
후반
실력
지도자
으므로
연주
가스
##시오
##구요
구글
##어날
트럼프
이기
육성
살펴보
보냈
타임
작전
연락
소년
그랬
위로
지휘
들어갔
편지
들어오
지분
건의
부채
##un
토지
국장
전면
김영
극복
단일
갖추
상처
뿌리
상관
인증
복합
모여
웃음
판사
##라스
모임
부처
##러운
원자
형사
노선
내일
의하
거주
46
누군가
디지털
이웃
점수
동생
기타
과장
이건
일의
모집
47
출전
별로
관광객
발행
종목
스토리
완벽
가게
고등학교
재료
대우
존의
떨어진
2004
이스
매각
생태
새벽
시선
경선
올라가
이래
유엔
##os
메뉴
추구
65
손해
불만
예전
##iv
끌어
승인
동원
총장
전개
과연
소방
장점
합리
중의
문자
따뜻
엄청난
52
##비아
임명
호주
그곳
베트
초의
진입
아이템
사업자
통계
단어
필수
195
임시
실수
런던
##TA
경향
해졌
##ow
PC
화면
부품
명예
구나
취소
악화
공감
49
개편
압박
채널
거짓
정해
어울
생존
거듭
검색
이명박
자전
400
떠올
지자
올렸
##em
연습
자극
내렸
놀이
흘러
돼야
현금
분명히
처분
궁금
시가
51
마침
충돌
활약
아닙
주년
시인
밝힌
대리
##ut
저축
경계
개국
아울
3000
질환
통상
듯한
군대
기부
오른쪽
분노
자식
##총리
##티브
테이
##란다
저지
근본
제목
성인
193
양의
##ec
담배
근로자
이탈리아
2002
스페인
날씨
새롭
트위
위하
75
에게서
권한
단독
에스
챔피
광역
꾸준히
프리미
인재
단위
CE
머물
대단
메르
코리아
세우
파트
관측
파리
네이
관객
면적
다루
교류
민주주의
당연히
보낸
자살
사무실
유도
취임
구요
바르
법정
복잡
##리오
##im
표준
마법
KBS
나타난
이슬
줄어들
##말로
알려진
##피스
보스
##아지
투명
다섯
맞추
자면
그걸
베트남
혼란
##로그
데뷔
의문
다운
품의
조작
##버스
농업
손실
취지
브리
수십
키우
마르
이른바
주지
53
어찌
노출
등과
유형
개성
시내
부드
이내
54
편집
허가
오리
##일보
주체
근처
석유
기독
후의
##회의
떨어져
나아가
옮겨
엔진
##ir
2003
조기
자전거
박물
##라도
배출
운행
물러
서민
감염
버린
감시
택시
트위터
어깨
성명
보증
아무런
##에도
유로
원전
서울대
나눠
화재
어떠
개정안
조용
##공사
결합
##환경
사법
충남
고정
동네
하의
검증
에이
나요
56
##세요
##터리
뛰어
고향
캠프
##사자
생겼
대안
평생
##산물
개방
피하
묘사
벌써
결제
유출
현대차
물가
##ers
진술
최대한
150
할까
다녀
그만큼
취하
연방
투쟁
교과서
갤럭
and
학과
선호
바꿔
애니
갤럭시
상장
당한
아이폰
어쩌
화려
이자
출범
는데도
구하
수비
부서
가졌
결의
접수
그려
##로스
##레이드
기도
추세
앨범
곳곳
답변
이뤄지
이재
맛집
모의
탄생
전세
ㅠㅠ
알려져
입학
건너
정원
축소
경력
설득
사퇴
훌륭
##마자
둘째
법의
주력
빠지
멀리
##뮤니
비리
관람
세워
완료
커뮤니
만났
증상
부회
동아
MBC
그거
역량
인공
걸리
통하
##플레이
국정원
클래
대북
시티
직전
상반기
방해
학자
종이
##바로
##철수
##오르
복귀
주위
경주
미군
그건
매체
항의
싸우
##ie
아울러
59
일제
스킬
공포
던지
##um
심장
집안
여유
홍콩
특허
관점
##NS
성분
호소
악의
주일
목숨
매수
너무나
스트레스
돌파
노트
하반기
역대
팀장
타격
집회
발휘
조절
당초
형제
편성
투어
The
치열
규칙
공산
물량
영양
자고
아쉬
프레
오늘날
로봇
승부
인류
##프라
57
부진
컬러
수립
재무
긴급
주거
언니
라서
조각
지내
개별
박물관
아프리카
##av
더라구요
신체
떨어졌
무장
경비
58
발굴
부과
64
인민
##어도
비즈
연말
죽이
##웨어
##어져
인원
공직
##마스
모자
자마자
채택
고소
파견
만화
아이디어
명확
##으니
극장
품질
생겨
##도로
이슈
창원
동반
단순히
그저
후원
정지
허리
점유
들려
의의
공모
지하철
냄새
측정
IS
비디오
저렴
이슬람
체력
여의
였으며
안철수
질의
늘리
도망
##and
지자체
협약
##어졌
초대
비록
매매
##ap
##드리
##op
상위
량의
접촉
취재
점차
사유
파일
##다니
는다고
수능
연설
학부모
뛰어난
갖춘
협정
부가
대법원
전해졌
디스
다행
보관
발달
소환
거론
광장
이랑
합병
한정
유기
미소
버전
임원
무려
사령
실행
예고
나쁜
왜냐
신설
환율
신호
단기
텐데
인용
##아버지
수수료
청문
답니다
뮤지
1990
99
##일리
돼지
줘야
조언
영웅
##워서
면은
증명
군인
혹시
자라
숫자
예약
기원
로서의
도서관
블루
드러났
양성
더라고
세종
고교
한국인
상임
부실
일찍
##르트
##케이션
깊이
도덕
라디오
기독교
내지
어른
안내
스위
나름
배제
##회사
서류
라운드
잇따
의존
눈길
한화
전공
호남
##영상
법무
부회장
이틀
지출
계층
##다른
내세
집계
잠재
조심
가계
노무
태의
##og
매달
##조건
수백
##나마
부자
오염
제정
언제나
걸어
깨끗
재미있
몰랐
휴가
중학교
흥미
가끔
2001
번의
연극
어의
교의
징역
비서
##담회
최선
##러리
정식
도쿄
변동
마의
성폭
미니
##카오
서명
표의
패배
느낄
친환경
이스라
시원
살리
늘어난
동부
무게
감각
그날
CEO
크림
실업
캠페인
받아들이
지닌
FTA
가동
대장
포장
수준의
단속
사라지
일대
기지
이스라엘
돌아오
문제점
교환
스피
St
적자
꺼내
취급
활발
63
호흡
획득
제국
님의
윤리
회계
드러나
총회
국방부
고발
나갔
원리
업종
85
동영상
질서
신세
풍부
조원
경찰서
해진
KB
66
마감
침해
##ce
항목
비즈니스
고문
질병
번역
즐길
##ab
대만
하나님
투수
진화
내의
근대
600
종료
전원
수집
트리
합격
대처
유니
쓰레
정치인
시사
간담회
대학생
이행
등도
신화
이외
무상
서구
협의회
선임
무조건
레벨
발매
대결
부당
홈런
##oc
공동체
##th
페이스북
거두
신분
##웨이
행의
비전
로마
심판
EU
입법
바란다
주소
매입
점심
파티
남부
찾아가
게시
득점
st
오랫
논문
장난
이승
191
SNS
오빠
##은이
양국
##센트
수영
드러내
##데이
데려
식물
사안
소화
##ess
느라
상업
전제
편안
##뜨리
브라질
아까
생물
기아
출입
옛날
치의
폐쇄
##ter
강원도
외환
챔피언
적합
나타내
며칠
순수
들어간
수리
몰려
##로운
키워
내내
비행기
플러스
가시
키로
지니
스카
##CT
내게
화제
용기
여건
소중
관찰
쓰레기
모으
미세
개막
##이너
된다면
61
대폭
일어난
지대
맥주
계열사
습관
인프라
##세대
폭행
화가
쓰러
끊임
과도
##립니다
저항
설비
포스코
임의
영향력
##ia
패턴
72
소의
선출
포항
본질
아우
견해
마트
전북
연령
뉴시스
화장품
남녀
이중
로써
김종
시리아
지불
토대
소문
플랫
결승
스파
감동
주관
성향
해군
천안
##메달
부사
지나치
62
보완
확률
##려서
파워
침체
마이크
즉시
오랫동안
다이어
반도
맞춤
일으키
연예
냐고
교육감
자꾸
마주
평등
초청
선박
살아가
보일
순환
이성
흔히
##교육
##우드
##마디
로스
스크
분쟁
강도
사내
흐르
##카드
##직원
초점
보급
합류
##으면
공통
간부
포스
그나마
김성
미친
지진
무릎
건립
열차
이민
실무
84
끼리
지위
엘리
현행
해운
##란히
별도
지도부
중대
줄어
해의
주자
상하
인정받
김정은
에어
취득
##나다
본사
야권
제주도
하우스
첫째
선배
돌리
해명
##연히
녹색
전이
솔직
무서
사원
걸음
텔레콤
적어도
지명
00
##ew
영원
구제
밴드
펼치
한지
추적
대립
종종
협조
##하면
이사장
취약
68
상인
예수
이루어지
현안
계좌
에다
폐기
증시
진료
독특
기름
##서트
풍경
아닙니다
주주
은퇴
##TE
찬성
속의
집권
소위
##다란
지표
800
급증
이용한
노사
이용자
무너
67
동맹
유권
무한
열정
1980
저장
담보
95
영장
네이버
##싱턴
테크
통보
불가피
아무것
느꼈
내린
남기
없애
살짝
확실히
프리미엄
정확히
기상
##니어
면접
노무현
모드
빼앗
전하
신라
세운
어쨌
제약
##공업
사로
정하
정착
오프
##학자
192
김치
눈치
차관
왜냐하면
창의
어려워
임무
음성
바이오
간다
테스트
여인
임기
퇴직
초과
겨우
도중
연관
카카오
여겨
확신
입지
폭탄
4000
벌어지
고대
01
파크
그러므로
청문회
녀석
##머리
다수
지주
용어
배상
반의
출산
유발
데리
해제
탈출
재건
해방
급여
##ak
조명
아베
신속
지향
가방
워싱턴
객의
황제
발의
아트
2019
##ov
박스
##려야
마크
가난
청장
유저
민원
운명
병사
페이
수시
주최
캐나다
##스티
뒤집
고령
77
흡수
피아
화의
##해서
최소한
잡지
부활
아라
지연
저자
축하
120
농민
콘서트
적당
몰아
어쩔
착용
대학원
시청자
건조
는다면
올린
이정
##ill
개봉
맞이
파업
클라
과목
고양이
유의
실내
스님
풀이
학기
도발
호의
테마
변하
쉬운
각의
당부
일시
포럼
정작
02
곧바로
1999
아웃
연수
굳이
세포
한마디
여지
서양
##ard
##메이션
장이
여서
휴대폰
주행
남의
가해
앵커
##리스트
공중
한때
##구나
워낙
만남
74
할아버지
재개
코드
보존
판정
쟁의
##스탄
일치
박정
장식
마라
##가스
탑재
첨단
그럼에도
##시코
실종
만날
손가락
71
공주
신한
훼손
극단
구단
일어났
성남
1998
73
한쪽
사단
역의
##총장
스탠
온도
방의
급격
살해
마침내
입찰
와인
##너스
잠깐
영입
파트너
이라크
뮤지컬
몇몇
서부
조지
불렀
도심
에겐
주간
삭제
##ell
190
붕괴
안팎
몰라
Ch
플레이어
1997
남겨
화장실
음료
모니
심하
미안
76
더라고요
에서부터
육아
필리
##베이
익숙
이혼
미만
목사
개설
일방
지켜보
##힌다
CJ
강사
손님
##나이
경기장
양식
도구
IP
빠진
아시
반도체
문장
cm
스티
일자
입증
압도
수록
구도
직무
학문
임신
일요일
추억
되돌
느낀
압력
연봉
##로드
공인
커다란
적발
붙잡
여수
고유
##항공
진영
명칭
용인
In
촉진
소스
700
경매
기금
사드
즐거
민의
변신
응원
유아
와이
장착
둘러싼
걸려
의학
터키
맞서
요원
승객
메르스
##미지
바람직
경찰청
타자
배당
클린
계급
면세
벤처
작동
유대
두산
경상
거치
##조합
고전
##IA
건데
해안
##ity
봐도
##스토
뜨거운
가입자
담긴
소형
소련
거짓말
수지
69
교육부
절감
신중
충전
십시오
88
중동
장사
바이러스
도달
방사
중반
젊은이
구상
사이버
지지율
무렵
다름
배려
비정
평범
품목
ww
문화재
아가
##ED
객관
이념
교실
농협
편하
위대
재생
레드
환영
공학
테이블
공의
아마도
근육
구현
for
유행
고구
밀려
스케
유치원
했어요
소수
댓글
더군
고생
동력
군요
가볍
전주
이걸
강요
격차
애니메이션
기한
비례
갈수록
편리
적의
단장
해상
통증
북부
AI
의뢰
봅니다
왕의
넘어가
신선
시계
재판부
그쳤
좌우
마당
원대
범행
추석
블로그
부딪
##ev
논쟁
남쪽
손상
조달
안심
거절
융합
소프트웨어
멕시코
변수
김대
거지
사냥
www
이어졌
한미
바른
정서
유력
복원
보조금
쓰이
스키
세부
78
6000
징계
##래도
##비전
존중
총괄
상실
##라고
디스플레이
##트리
아닐까
보여준다
선전
자문
과일
어울리
공제
멈추
허위
휴식
외의
적응
드라이
안드
토요일
##그룹
합동
만들어진
로드
##르크
였으나
어두
조화
듯하
기후
실망
03
다이어트
천연
##다리
비대
화성
퍼센트
들이
공략
플라
당사자
연료
만일
열렸
조항
2020
장군
부작
떠난
채무
조례
가상
침대
사우
충청
##ra
동양
마친
세웠
전당
믿음
메모
출근
붙여
내수
체크
##정부
운전자
백만
대강
황금
행보
상대방
벌였
구경
자네
국경
추락
오브
독서
시달
기온
바위
##바닥
지리
결심
케이블
형의
기재
계시
조종
우울
지인
스코
어쨌든
끊임없이
깜짝
베이징
올바
보육
98
가질
드릴
그치
아카
무사
널리
포르
창작
알아보
8000
##if
시범
애초
차기
청사
교황
라든
화이트
아무래도
셔서
연맹
재벌
섭취
해고
최우
수천
엄격
##ct
평창
참사
뚜렷
##ep
유권자
금의
돌아온
자아
김태
챙겨
심한
박지
상무
포스트
개통
나설
지나가
예금
깨달
여의도
사물
하여
호기
흔적
민감
든다
세이
수급
의자
##CD
##어버
모니터
골목
일각
##단지
요건
벌금
이젠
카운
장악
진지
아메
##다수
부위
유입
상환
설의
선보이
보험료
전후
코치
매니
블록
##수수
김현
##ine
난민
유동
한참
의결
시급
참조
생의
주석
하위
IM
당일
소지
상자
산업의
##레인
선진국
반박
간호
즉각
무력
가공
과세
마사
유학
##로이드
##art
관세
병력
컨설
농촌
명품
걸로
사가
국내외
트렌
진주
페이지
##무성
비정규
##덩이
넘겨
석의
충북
엑스
##타인
부총리
태어나
86
양상
동남
보편
평양
주차장
비정규직
모색
청원
##ob
대륙
동작
줄여
으려고
##시다
이어질
자국
열린다
81
위주
향하
##집트
작곡
부각
백성
배터리
식민
노후
중공업
이집트
##ood
빌려
장르
원이
화물
to
도대
피의
떠났
드래
경찰관
가벼
베스트
동해
변의
최신
랜드
통의
선두
분열
7000
##est
불교
날아
##라리
초래
용역
북쪽
##끄러
청약
마스터
##증권
금속
대거
비하
메인
가깝
타이틀
진흥
시킨다
공시
연의
GS
중도
상가
소요
우유
##이도
노리
도대체
이리
1995
저런
주한
그니까
82
부적
##ip
당내
간접
강연
지침
중독
충족
회수
79
비타
시나
권위
특유
선사
본래
스튜
고리
규명
어려울
##거래
오해
오토
구청
마약
원유
머니
진상
설문
받아들여
텔레비전
오가
가요
천억
왜곡
입시
자가
##30
될지
##nn
을까요
AP
##덜란드
칭찬
들어와
막대
깔끔
쏟아
가사
멋진
장학
총재
네덜란드
일관
신기
산하
비로
임직원
##바이
해체
참가자
##크스
영혼
들어온
개헌
91
강점
출석
대원
현황
방위
1970
리더십
들어왔
명단
##all
복수
대다수
유산
##ub
높여
해져
계단
공작
태어난
구멍
##브리
원정
떠오르
데일리
실정
여권
오직
제자
##ist
치즈
배달
기쁨
위안부
순서
선거구
당황
농가
얼음
우의
한가
분이
일행
증언
걸렸
구성원
##트로
비싼
대행
어둠
착수
MS
승진
들어서
양산
선도
수주
치르
신부
섬유
##tt
줍니다
인과
철저히
정성
항공기
##건설
87
살아남
부사장
96
향한
##IS
대대
온갖
권고
소셜
이상한
치러
통치
중구
매출액
##ht
대목
태평
전한
담겨
경영자
싱글
가만
신발
가속
아저
05
입원
금요일
빠졌
환상
면세점
육군
##디션
돌아왔
표명
감옥
SBS
크리스마스
어린이집
부패
직장인
전사
미터
가이드
핸드
진심
색깔
발전소
인문
일원
나눔
표기
내려가
감성
재난
필리핀
유닛
건지
97
아저씨
인치
특이
새끼
먹이
빨간
앞둔
##랍니다
시중
##비드
이종
심화
해진다
미칠
천천
##생활
##퍼스
마땅
때로
워크
체육관
유용
격의
김해
천천히
그릇
직면
회전
플래
스위스
##디아
mm
원주
한글
위성
밀어
1996
250
목격
홀로
출장
타워
대량
탈락
해질
프라이
물류
되게
전설
생일
부작용
푸른
군수
억제
조의
골드
##ang
난다
연휴
원자력
무언
후기
##리포
반성
책임자
타당
들어갈
인당
인연
상당수
수면
오피스
신입
모았
무관
대상자
크루
오로
##문화
##까요
타입
대체로
가르치
ch
박람
기조
엔터
해준다
사인
시트
치명
행진
대외
##사고
점령
모래
농구
사로잡
옮기
줄어든
전파
브리핑
무척
말라
비타민
끝내
소음
##관리
명백
으시
월요일
시신
사격
자본주의
고속도로
고수
토론회
kst
사무총장
##CC
의해서
계절
피로
유죄
충실
전선
비의
플로
94
후속
현역
89
180
학대
판매량
유해
구미
경로
83
드디어
하드
시정
실시간
확충
바랍니다
재능
너희
조합원
건전
낸다
교장
스페
장수
##먼지
주류
청주
미술관
주재
호수
예외
철회
##포르
자세히
신임
국세
깨닫
##our
아일
웨이
92
고르
이른다
스웨
겨냥
이주
1994
넘치
금메달
당원
신학
후보자
전시회
제조업
학회
역전
동북
알렉
실태
그야
진의
지혜
상사
쟁점
낮추
무선
##ok
채워
정면
그야말로
##DP
프라
유전자
본회의
청의
메이저
나쁘
클래식
기운
살려
어리
어쩌면
태국
여섯
##피아
용품
포트
아스
북미
월급
여객
대구시
빌딩
##랑이
푸드
인형
단점
나간
후배
고시
진학
비서관
이닝
귀국
입구
게이
가려
프린
측근
##리즘
두려움
왕자
놀라운
명성
##입니다
무용
공헌
MB
##리티
사라졌
신앙
터미
치킨
헤어
##eg
재배
전직
코너
강경
방영
##ey
들리
th
구원
관료
누적
재정부
저작
사이즈
동화
인데요
넘기
##번에
열기
두드
계정
김동
한층
중점
누르
마켓
속성
소금
발급
성폭행
리스트
농장
베르
사무소
버린다
앞장
영토
처지
##피소
잇따라
접속
매도
대해선
클린턴
단말
흘리
고백
수분
kg
바깥
소외
케어
두려워
고마
##친다
늘어났
욕구
교도
오일
내면
신세계
독도
상원
자신감
공세
##ea
공군
##단체
기대감
정수
면의
재건축
##ath
외면
위상
서해
##용차
기적
박수
감상
비싸
관여
동참
증인
##PG
혈액
운송
거래소
방치
만든다
중계
버려
다를
용산
202
언젠
연상
##버트
스런
신인
구름
불행
측이
어질
미세먼지
수당
##저히
명시
##런스
서술
됐으며
원작
드러난
과학자
추측
표면
미국인
특검
협박
일반인
연평
##아내
al
견제
리조
LTE
책의
몬스터
수색
괴롭
##가포르
당분
따지
민생
법무부
관행
저의
예쁘
패러
##ue
주부
싱가포르
국어
현의
철수
둘러싸
올바른
철거
귀여
가짜
납부
인종
되찾
리얼
상식
윌리
##들이
무언가
대금
응급
93
독점
189
붙이
##받침
탄력
김재
이끄
##시마
상공
독재
디자이너
영남
육체
##아리
지낸
동성
##으로
중고
걸린
밝혀졌
##크라
기아차
탄핵
드립니다
시골
전적
위축
문명
셋째
소모
감자
돼서
밀리
예의
사회주의
옵션
예쁜
구별
전역
보좌
06
##소득
정적
선보였
유연
방학
트럭
김무성
##포트
욕망
부하
간주
부리
과감
종로
진리
내다
커뮤니케이션
강세
한도
아일랜드
##바지
연인
기업인
답답
기어
##네시아
특위
도내
##임스
외모
조만
##대문
서쪽
돌입
케이스
정밀
탑승
서버
터미널
매주
체인
보인
##스키
커플
공화국
대주
오류
학술
중개
장례
스프
##어리
##ik
내기
아이돌
멀티
지난주
건수
용도
쇼핑몰
900
무산
헤드
조리
##산업
FC
##리포니아
산책
철강
법칙
마이클
##버그
심해
캘리포니아
포착
상승세
하얀
해수
음주
챙기
꼼꼼
갖춰
모를
거친
납치
##잡이
쳐다보
모터
연애
달아
금방
국적
다스
추모
커뮤니티
캠퍼스
라이프
##거렸
던져
마쳤
당당
회동
끔찍
납품
냉장
히트
높였
춘천
탄소
매치
희생자
박람회
컨설팅
페르
다가오
ㅎㅎㅎ
구호
이지
고지
저기
당해
이뤄졌
목록
##성장
포털
각자
날개
9000
08
주먹
채우
09
보전
코트
##워드
부시
버튼
##그레이드
대개
업그레이드
인테
제임스
노예
용서
격려
련의
이모
가전
가맹
언젠가
금감
김기
시공
금강
비극
연예인
서초
뮤직
바뀐
신장
라이브
사립
사찰
발효
안타까
합쳐
꼬리
불거
리라
건가
성실
뒷받침
뇌물
끌어올
분당
##어놓
##둥이
트렌드
비트
오랜만
숨겨
원고
공고
지냈
##루션
한강
약물
존경
특별히
침묵
개척
04
입술
백악
문구
아쉽
리조트
특화
자제
국면
행정부
국무총리
재밌
먼지
성립
전담
별다른
##운동
회관
감축
##키지
편의점
PD
인도네시아
남겼
자발
생성
즐겁
가문
면역
소매
오스트
형편
일기
##임금
데이비드
증세
돌아와
##둘러
고사
##데이트
사후
##톨릭
패널
##ff
교섭
카이
까닭
내정
회피
업데이트
고조
눈앞
##피소드
에피소드
항소
패키지
억울
주사
1992
글자
놓여
트레이
조만간
강릉
친절
보입니다
시체
술의
당분간
아름답
일지
##지사
흑인
일어
진로
공방
리스크
물품
##어진다
도서
음반
급식
촛불
아픈
아랍
##러지
코스피
##스턴
관념
##긴다
만기
극대
입니까
아끼
티켓
미스
줄기
앞세
예선
그간
세탁
영광
빠져나
해킹
기법
구석
정말로
여사
이메
시나리오
명절
지법
김대중
지부
단원
발목
욕심
갈라
원가
1993
청산
##가루
갤러리
##ong
입력
사용자
실리
생길
부도
적정
증권사
1960
뛰어나
##ack
평택
미스터
##ame
김진
허락
점포
불어
##파이
다행히
새해
채소
김용
그라
차라리
저널
당과
궁극
07
명분
의외
##티나
태풍
메일
안드로이드
슬로
양자
학위
기울이
무의
관절
조세
##컨대
로켓
동쪽
하여금
액션
벌어졌
한겨
##스티벌
로비
그대
상생
페스티벌
무죄
윈도
등산
적도
만만
안의
유전
파의
뒤늦
##직자
타운
타이어
##ud
농사
레인
크로
금호
부드럽
중시
터지
중순
사형
동구
한겨레
기가
라이트
완공
관리자
바닷
순천
이메일
##ant
드림
GM
분산
인테리어
족의
단말기
뱅크
제어
감지
돼요
##들의
노동당
한동안
신동
차장
조약
금감원
스웨덴
유승
기차
분할
김상
수렴
담당자
의상
고추
모은
이마트
악마
부양
내다봤
자칫
위장
틀림
지목
급속
귀족
식량
스크린
곤란
잠수
통장
외치
전술
녹음
민중
야간
강행
주유
도박
어릴
일주
우위
무인
달한다
한국어
증대
자존
오페
화폐
외교부
영의
전무
입사
or
대지
몰래
창문
시상
br
지역구
즐겨
서기
애정
인디
현직
종시
마디
일환
거울
##FA
##풀이
드러냈
##블릿
필드
양쪽
남아
영화제
사자
비로소
도약
신사
늘어날
색상
배송
슬픔
뷰티
원천
노하
태평양
정황
##──
김경
결혼식
골라
단축
짐작
일으킨
cnn
최저임금
대항
양념
데미지
경찰의
무덤
잘라
바보
던가
라면서
히로
다면서
경위
130
형상
누나
놓치
포도
러시
편입
면허
거점
윌리엄
신비
##아이
흔들리
바퀴
유족
숙박
##ort
##ich
단단
이겨
몰리
가들의
##처럼
으리
이럴
그림자
산업단지
한두
콜라
민심
##이즈
New
의류
승용차
고구려
중재
범인
벌어진
일으켰
낭비
면제
박정희
##키스탄
##NA
##man
처의
후회
준공
메이크
개시
투데이
학교의
##동생
관할
순이
영감
미의
비평
흥행
위탁
무지
즐거운
패스
##ert
배정
국산
한숨
##트라
IMF
동향
오스
플랜
시에
예능
월세
부천
노총
##iz
세일
재고
복무
심정
실용
##ate
저소득
스타트
나타난다
가만히
##ive
차질
bl
정무
출간
나와서
생계
함유
##러드
더블
피트
실체
조용히
##가운
세제
백악관
수위
더구나
더군요
나아
타임스
세미
태블릿
##리에
즐거움
리버
똑같이
고스
고장
재원
유혹
OS
##ry
남한
고맙
등등
사연
한창
예산안
솔직히
링크
발라
발동
돋보
공익
오페라
스러워
야외
당선인
꼽힌다
피고
##마크
맥락
가톨릭
보여준
일어날
가족의
와중
약한
창고
##미터
마비
소원
정통
으러
##튜브
대국
아나
어차
어우
부른다
공업
나란히
상한
##oh
1991
영구
원활
##테크
사령관
대박
위키
버릴
출자
유튜브
찾아보
연합회
퇴근
피자
향의
통신사
어차피
엄청나
어르
사면
탈당
감추
바지
전인
선교
가르쳐
드레스
차세대
수년
서서
따져
화력
수습
버티
NH
KIA
한의
식민지
원에
의약
##꺼번에
한꺼번에
가벼운
체중
부드러운
다룬
제이
##구리
지능
드래곤
이뤄진
중국인
그리스도
이수
주방
미드
치유
김포
##러진
꿈꾸
##실험
고집
##핵화
공정위
데이트
병행
남긴
종일
빛나
비핵화
행태
스튜디오
매니저
늘려
미션
색의
책상
안경
니다
est
각국
대한항공
증진
특별법
가라
수다
사업비
라니
투기
절의
경의
참으로
절실
포드
복구
개그
##OS
가하
날짜
유적
터치
##하나
여신
내각
취향
생생
불량
아리
1988
동서
##ge
더러
솔로
리스
던데
중부
드렸
시세
마스크
알파
장교
##CTV
계란
태어났
학력
빌리
단백
유인
##ark
번지
클래스
흥분
협동
##ian
프로세
근접
노란
성취
과잉
당뇨
110
둔화
야생
터널
CCTV
나타냈
약화
광범
환경부
US
주저
투자가
이치
##레이션
사망자
때리
상향
실의
감사원
오버
정규직
레이스
삭감
중립
##작스
포의
광역시
교차
일곱
공격력
노하우
파란
료의
여왕
등록금
교통사고
돌아보
CN
누워
창립
핵실험
지원금
절대로
내달
부근
어려웠
서방
제고
모시
혈압
##을까
고무
이영
저렇
변형
그런지
안녕
##바람
도청
아메리카
서서히
당첨
못지
##머스
GDP
구해
금품
끌려
잡아
모순
마구
발레
감수
1500
용량
일간
처방
합성
바꿀
명목
해변
어떨
상세
아픔
난이도
##80
꼽히
아름다움
봐요
원조
지지자
문건
농산물
초월
기술력
산림
염두
솔루션
강해
언덕
일부러
##남도
토의
취해
양도
포켓
무효
유효
흡연
드물
더욱이
지르
화요일
자매
간편
피할
첫날
트랙
준수
키스
별명
수험
장인
도둑
면담
도민
진전
##ib
IB
그분
유세
전투기
지붕
감당
중견
운항
보석
브로
##ast
간사
자회사
기호
업자
##토리
##놀이
##데미
쌍용
반란
상영
갑작스
계승
##화문
동계
시달리
비치
미쳤
베이스
부산시
포괄
총기
음식점
뛰어들
##닉스
상금
##ttp
##ne
개장
수산
재현
클리
파운드
성우
시켜야
주고
맡기
써야
수요일
배운
제발
##다지
출생
출동
억지
전교
http
불꽃
상관없이
후쿠
vs
무서운
##져서
지은
동남아
힘입
내릴
신성
결성
전신
1989
여파
어르신
고가
어두운
전기차
횟수
탐구
명은
놀랐
정한
1987
확립
불안감
##제품
de
아카데미
BM
항공사
잃어버
도저히
##낸다
대조
트레
교원
배포
필자
자부
##ord
합법
재직
부스
계곡
신상
CD
벨트
상속
절망
##느리
내놨
뛰어넘
네티
관장
양보
##체스터
김일
##게요
보낼
아사
수명
종전
향기
등지
발주
잉글
탁월
IC
목요일
냉장고
보라
호응
단행
마산
대사관
모험
앞선
세무
이산
오의
##지능
노르
##ee
##ss
다녔
아시안
클릭
물고기
본선
용지
##더스
농담
스킨
마일
안양
인공지능
넘어서
판의
선행
참모
이루어진
응시
##트롤
##ain
한류
약점
##스토랑
레스토랑
표지
몽골
우연히
성당
토록
##PS
달린
정세
피아노
수령
간판
커버
좌절
##오프
##매매
핑크
##져야
메이크업
그레이
네티즌
과시
장성
급등
따위
광범위
FA
하원
법조
달라지
내밀
마늘
##일러
##구역
타인
올릴
머릿
출판사
이태
가중
##고리
소멸
모이
내비
에드
##DI
이득
머무
어지
코스닥
펼쳤
수송
중화
죄송
##ect
이적
간식
내장
지났
위력
좌석
져야
치매
미루
구두
이쪽
온다
##ight
소유자
박원
숨진
새겨
주고받
시집
단체장
댄스
전차
눈빛
한진
공기업
올라오
지경
축적
sh
으려는
개소
감면
민간인
감기
스카이
코미
일체
으신
원료
스펙
##ran
##북도
침입
우스
주세요
##스트라
관해
차트
##드라
오사
줄일
스미
선포
패치
##병대
생애
국당
브레이
##식간
##지니어
빈곤
카르
피우
백인
안타깝
브라운
작의
160
파라
왕국
##규모
토끼
유물
폭풍
베네
확고
전지
##ont
포지
##니즘
단과
복용
건설사
벌인
보충
서둘러
천재
급격히
치를
골프장
보복
흑자
OE
제로
상주
라스
렌즈
인격
##유럽
지적도
센서
출구
접하
입맛
파주
피곤
태양광
떠올리
##사스
실점
수신
횡령
##리케이션
해설
수소
그다지
요금제
광주시
거세
##ure
아쉬움
주머니
##수수색
추산
압수수색
국세청
대단히
장과
140
충성
추출
허브
임상
활의
일주일
나뉘
떠올랐
성사
나선다
##온다
떨어진다
##위원
##ah
커졌
소주
수시로
대치
택배
북측
인쇄
소규모
##멘트
순이익
추격
김정일
건네
김수
요새
빨라
세련
일본인
화합
염려
하도
은지
조율
천의
##걸음
순식간
이야말로
리모
통행
폴란드
여주
##두르
모금
결단
수호
소용
장학금
불신
시술
이듬
정교
##저기
##몬드
재발
LED
반짝
Al
양측
##끄럽
안쪽
어라
클라우드
단백질
여기저기
바둑
병의
내세우
박영
냐는
강남구
암살
될까
SM
계신
출처
안다
비유
역임
다의
##ail
부착
그래픽
통로
텍스트
조국
폭로
양이
가죽
시너지
##OC
일과
노동조합
개조
##se
숙소
잠실
트로
##시장
날카
연세대
분량
컨트롤
나이트
##걸이
김민
NC
##AS
영리
##느님
##ith
##60
노벨
노릇
119
선제
강렬
부추
이뤄질
##오스
소집
지형
유래
##밀히
##ER
교정
십자
프랜
이듬해
인턴
##시간
러브
##관계
원화
채로
아닌데
하수
괴물
사와
터져
텍사스
삼국
물러나
게재
##셔널
집값
하느님
해산
매트
예컨대
고스란히
침몰
천문
편이
무거운
두루
사라진
적립
##틀랜드
##뜨렸
호랑이
경유
주연
이은
##end
배신
도요
드론
소득세
건국
스승
신념
만하
집의
건축물
모씨
자존심
기다렸
민영
명회
이윤
약의
관람객
학살
##NG
위생
중지
##본다
엇갈
동행
단호
모범
##ial
##루스
강아지
들여다보
경제학
둘러보
##슬러
찾아내
권유
무더
내려오
탈퇴
검거
폴리
기인
발간
착공
피의자
온몸
착한
크로스
##아웃
무섭
에도
오로지
역설
성경
무너지
다큐
용의자
성폭력
상점
꾸며
침략
성추
알코
달콤
리포트
간호사
노동부
설탕
##외선
유독
떨어질
저하
소니
으론
분배
포토
기동
##구니
파도
보물
이병
지검
폭스
주름
ㅠㅠㅠ
아냐
##보드
걸릴
국물
pp
사거리
기쁘
영원히
착각
스피드
맨체스터
블라
작정
활력
일러
##ass
취미
업적
공직자
장갑
평론
부재
아르헨
특혜
소극
인접
연도
장려
던졌
김연
유승민
##마토
하나하나
##지부
입국
물려
아르헨티나
가루
피터
혐오
시드
가까워
성질
바꾼
##배우
미용
크루즈
까다
방통
성숙
사업장
##야마
내역
스트라이
들어선
1950
수장
사흘
유감
당사
일선
떠오
가맹점
갈아
불황
헬기
찾아오
농도
의정부
##저스
함정
제법
성추행
근원
산소
광화문
한자
행성
출현
날리
대략
돌보
열쇠
혼합
전액
안산
비주
책정
LH
플라스
소홀
남양
나빠
최다
장벽
##차례
유망
##동강
전송
반사
토크
물어
사막
기뻐
도모
풀리
만다
188
문인
호기심
알코올
따라가
끄덕
해임
베를
##조리
잉글랜드
##40
호르
남용
인천시
태극
요약
목욕
마인
##니스트
출국
쇄신
진압
만성
일명
기각
##쟁이
##ick
자사
으면서도
신이
##데스
써서
리가
우크라
신혼
##uc
걸친
바쁜
세미나
가져다
##브리드
가해자
##일으
불러일으
화살
##ust
게이트
##바라
감싸
성매매
헬스
하이브리드
배의
음모
재활
가리키
막판
워치
김지
득표
저지른
정국
##행위
낯선
##급식
##ly
아이스
응용
라든가
이례
양심
거뒀
저질
피고인
집착
이어진
##현진
상정
등판
무상급식
오피스텔
유가족
중산
##바이트
CBS
병역
광명
##어질
벌여
목포
언더
유료
모인
억압
관중
고려대
만하다
그만두
십니까
시카
점프
한방
분과
SU
정의당
성형
##범죄
위해선
군부
말의
울리
수확
간절
이뤄지지
연동
전격
##무기
프레임
주시
랍니다
is
반환
배웠
수감
##먼트
셔야
내주
포스팅
발음
국채
부유
서면
워터
교역
쏟아지
가져가
보강
실효
송도
경사
##son
경관
요양
우세
극심
농성
공조
FI
##유산
시비
반려
발명
한은
잔뜩
달랐
자격증
##릭스
스토어
석방
집어
우편
주어진
연이
##eb
벤치
파문
열매
단다
전락
고고
눌러
도우
육상
이마
자이
##널드
##치기
부와
##ng
캠핑
해결책
##빨리
##난다
101
축산
승무원
그랜드
아닙니까
왕조
신축
부러
애국
보드
Th
##이터
수성
##기에
아티
베이비
상용
한우
초콜
메리
##밀리
당기
해법
당할
추경
##릅니다
다짐
##ef
해경
함부
낚시
거품
엔지니어
출력
서식
최상
헤이
어선
tv
외곽
주파
혈관
로버트
관심사
반찬
전철
최경
낙찰
학년도
최순
우정
생리
노스
게시판
랭킹
버락
가라앉
샐러드
조속
여학생
송의
어머
이순
##세포
HD
생선
주유소
ST
열려
메모리
되풀이
##로나
OECD
##ld
오케
마라톤
연루
백신
포로
코미디
루이스
##보내
##워야
모니터링
군데
예술가
견디
반전
책임지
기성
구사
방송사
고쳐
보증금
매월
기다려
파고
약자
화해
187
제휴
##센터
소감
시한
조회
적대
잡히
분담
논술
사양
취한
공백
김광
넥센
외국어
로맨
비결
오프라인
##ork
치솟
아닌지
##운전
간격
과자
중복
기둥
대에
방과
신종
지각
강간
##토록
의제
의약품
BMW
비자
동북아
아키
연비
한양
##셉트
바쁘
장난감
골든
경보
살피
처장
가져오
머릿속
앞장서
장미
동굴
장거리
명문
준다는
양육
한전
##성기
우즈
프리미어
시야
신생
우린
항만
교도소
여고
전월
정복
안동
##OU
거둔
접어들
어딘
##per
선원
웨스트
1986
수여
연패
상권
원한
맞춘
회원국
라기
추위
으려면
모형
가드
헌신
서점
쓴다
스페셜
대접
##들여
애플리케이션
에어컨
학업
살림
신나
다크
높일
기증
정해진
휴일
##af
버그
열악
종업
이루어져
당선자
시행령
##nt
반기
사각
스코틀랜드
열풍
절약
도리
지옥
구리
돌렸
탐사
식구
퍼지
디젤
##ment
영주
대충
산정
부수
##카락
Pr
머리카락
##IC
청정
소식통
기숙
궤도
지상파
파키스탄
거실
야채
우드
힐링
플라스틱
항구
루트
저소득층
수련
조상
해라
외출
제압
정화
일으켜
엔딩
토로
##ond
분포
탄탄
공산당
외무
선명
수강
##oy
모스크
성서
나타날
상상력
돌아갔
어떨까
니까요
말리
우회
파장
합작
망의
새우
체감
밀접
여전
홍준
촉촉
만주
name
검정
약하
조카
전진
##ore
현명
송파
급락
##집니다
옹호
막상
##일이
박계
코어
##봐야
대세
마이너스
##io
사도
은가
인지도
치우
에이스
스캔
인건
군주
##주의자
찾아볼
##십시오
파격
##가리
한결
숨기
시위대
지우
약해
진도
이인
스쿨
사명
##어내
홍수
끌어들
중기
열릴
적혀
보험금
신흥
닥터
##패드
전도
돌아다니
나노
법령
Un
쿠바
오마
포르투
국왕
발길
잔인
유방
초등학생
그해
검진
귀찮
단편
한국은행
신도
도지사
연승
탱크
관계없이
잡혀
리드
기원전
입건
수차례
였을
팔리
옮겼
동결
통일부
##bs
Com
맞대
광복
전임
동지
경호
인체
종업원
편견
##어로
##TV
##ice
앤드
전작
일일이
위법
례의
인성
냐면
들어올
##ear
운동장
홍준표
지성
양파
이데
튼튼
보행
낙동강
복제
밀양
타점
등기
할리
호르몬
알레
##ex
신탁
도출
격리
파산
##옵니다
미흡
글씨
##타운
하로
다가가
입수
시립
필름
디스크
메달
속이
효력
##서리
강동
생산량
리뷰
다이아
스테이지
커질
선장
##ula
쌓여
선거법
보리
악기
SP
이어져
섹스
왠지
신형
은근
##관위
석탄
날려
아가씨
스티븐
SS
포켓몬
원형
지루
KTX
조그
인명
진동
멘토
강좌
170
잠정
카라
경과
최우선
체질
노트북
인건비
고치
안건
##산부
흥국
히어로
관광지
1985
어느새
벨기에
껍질
중년
매번
청탁
바가
내외
루이
안개
수상자
##저리
클리어
연다
부에
단정
일제히
화상
손자
레이저
주역
얼른
form
##프리카
베를린
##교통
최적
정유
초콜릿
임대료
##거나
##징금
##소시
배후
작중
우울증
세입
위조
사령부
엉덩이
임차
사료
일산
정관
재판소
개관
재학
대피
활기
맞물
탄압
사라져
모리
배우자
해운대
포지션
화보
##IP
친척
캐스
복음
위가
트라
##aw
##qu
연재
##올로
용이
치아
제사
놀랍
반지
증후
박차
들어간다
언론사
내걸
LA
시상식
종사
매운
타협
떠날
다닐
몹시
어떻게
판매가
참전
케이크
길래
학급
그래야
배울
선보인
오락
박원순
##타르
MC
사운드
언스
제조사
Sh
##MC
방금
이대
미지
줘서
해치
ICT
sp
감독원
봐서
##셔츠
경영진
하향
아군
아님
상기
대법관
대수
휩싸
마리아
일수록
짜증
받아들일
애매
상품권
암시
지나친
백제
재해
주권
폭격
##EA
리서
하시
##바다
김병
비틀
하트
복의
치안
체류
협업
외신
이어진다
정직
접목
정치가
풍성
행운
배분
여덟
사제
어렸
모기
바꿨
광산
이어서
약세
호평
오사카
처형
퍼져
몸매
첼시
주전
보좌관
내려놓
입점
알렉산
본능
알바
되살
농어
배럴
출제
다름없
핵무기
민정
방한
을수록
갈비
나마
결함
혼인
대인
추첨
귀가
막내
##국수
##공항
주의자
##FC
으리라
전라
라든지
먹거리
습격
창당
사소
##무지
비추
아홉
선대
각오
구청장
유성
고래
여대
사모
당국자
##ory
천장
류현진
정동
초보
북구
으셨
처한
간섭
달래
아무튼
유나이
교훈
전염
거니
차려
세르
##네스
돌아갈
##age
꼬집
비닐
동아리
원은
##모토
마포
유나이티
농림
##로우
##키아
해리
넉넉
##라이언
뜨겁
##베이터
##ram
구로
극히
육박
명소
시어
인데도
지문
거래량
후손
몰라도
끊이
문득
##EC
도시락
리듬
실은
##업자
계파
려던
휴양
기상청
개발자
스파이
폐기물
186
##그라
고립
실명
귀여운
GB
금연
1984
스터
장례식
조짐
좌파
평일
져서
상임위
##TI
##내리
on
영문
자진
세수
차분
하인
교통부
증정
환의
##와서
똑똑
조류
이력
아르바이트
##스크림
비명
톡톡
하나다
버프
부풀
창원시
기르
곳도
셔츠
추방
하천
업소
Ar
신조
식이
울음
##질랜드
자르
쓰여
자영
##끄러운
성동
350
싶어요
##두리
생긴다
사이드
지가
기장
##sh
대여
못지않
스러웠
아산
종족
쫓겨
느냐고
때려
오이
스틸
##베스
성장세
사교육
뉴질랜드
자위
##ung
수법
요법
변호인
##세이
마루
원단
마신
퀘스트
저서
드린다
한눈
이분
공문
우호
마틴
물음
광부
##물산
부적절
느낀다
검출
오렌
황당
안겨
남동
김일성
미뤄
사우디
어긋
##70
##먼스
운반
심상
키워드
구할
부합
##프리
변해
은하
총격
아이스크림
과다
개체
틀림없
실전
프랜차
어색
##사리
타의
추상
##파크
삼성물산
먹스
샌드
논평
프란
##ind
##ence
아쉬운
법제
UN
리서치
시진
매진
##ary
해지
프랜차이즈
가산
성범죄
동성애
수직
전복
제네
간장
전과
클레
망설
고작
바디
넘어섰
마냥
라이벌
##oll
치가
플로리
##ber
향했
휘발
국비
숨지
에코
상해
야기
다는데
전산
마드리
아이패드
가담
우연
##ph
##테이너
제보
다닌
연내
타결
휴게
신랑
인가요
천사
단절
박주
##ical
이완
함대
##ies
you
드라이브
조선일보
마드리드
마력
푸틴
엘리트
전경
단식
##올로기
맡겨
레저
하버
흰색
입양
사위
코레
증후군
제작진
사마
거칠
초록
영등
##고속
참석자
요시
고인
경부
준다고
기세
풀려
속한
##연구
푸르
에다가
싸이
서브
지갑
사설
속속
팔레스
옵니다
오렌지
잃어버린
##mer
112
국민은행
##사업
범주
익히
이데올로기
납득
다시피
유비
1982
야마
잠수함
정전
가뭄
손쉽
CNN
동포
장기간
기울여
했으니
TF
Pro
전수
레스
주파수
킬로
##베리
차림
날아가
격렬
든든
여동생
후퇴
Sp
줄줄
기체
손목
온실
향수
베리
복장
컨셉
올라갔
박지원
군단
죽여
회상
갖췄
법인세
본다면
재계
무난
보살
팔레스타인
비스
청춘
각기
처녀
봉투
낭만
크리
##렉스
##니스탄
범죄자
##위원회
공영
지장
이대로
삼각
배틀
으라
##포먼스
토리
안방
퍼포먼스
믹스
밀집
우대
일본군
##ire
##테일
예언
파생
114
formula
##진보
타이밍
클로
##티아
미네
흘러나
모욕
실로
발병
다툼
비단
간신
##운서
발령
정신과
렀다
웬만
CP
지극
햇빛
후임
과실
아나운서
페어
##스카
결승전
규범
이석
##싸움
간단히
자부심
판타
교부
국감
양은
잠재력
척추
명확히
멸망
##숭이
감탄
주무
박종
너머
크라
안주
콘셉트
음원
회가
트래
품고
신년
연구자
귀신
전방
극심한
계약서
스탠드
구워
그루
로고
그늘
장병
고성
인적
발탁
##쳐서
가령
마나
애인
수혜
과반
소망
햇살
보트
통영
걸맞
연안
본문
함부로
실감
치밀
달렸
종사자
세로
환승
어째
반군
직선
가세
자들
전장
딸기
타율
레오
##소연
광양
대역
유예
##베르
어리석
관건
태우
최강
교대
교재
##10
천주
일가
##린다는
놓인
특권
뿌려
승강
토마토
##RA
보컬
공룡
물결
브루
담화
설사
엘리베이터
감히
공지
만점
구제역
자외선
불공
배수
거북
예배
무제
금강산
DNA
암호
##욕장
버섯
컨테이너
수질
자질
권장
마법사
##인지
좀처럼
##진보당
증여
공감대
원피스
펼쳐지
모스크바
산다
아줌
인자
스미스
공판
##우리
로즈
##ern
영세
총수
##사이
지구의
엉뚱
공립
중앙은행
캐스팅
1979
레이더
변했
단서
정산
알렸
등재
##이치
앞당
발송
##버리
하와
##영향
아티스트
서장
만지
아마존
덴마크
##MA
적시
할수록
##르기
소나무
변함
공존
놀란
승의
소아
집필
분해
닷컴
비해서
아줌마
##렉션
센트
조립
연평균
올레
KA
묘지
합창
앞세워
소액
특집
차가운
성장률
발걸음
각지
스타트업
##ook
휩쓸
기숙사
모양새
단가
의석
보름
카지
산출
간직
SUV
박탈
취할
##커녕
사방
경전
사임
통합진보당
분단
총력
이경
머물렀
브레이크
술집
##TO
신자
##려고
폭넓
##ens
총액
소폭
언론인
대주주
유진
첨가
과태
획기
찾아온
탐색
드문
##타이
숙제
전교조
관해서
함의
DJ
##자치
동이
이스트
##플레이션
##부르크
찾아왔
오케스트라
느껴졌
상륙
반격
대중교통
양극
아프가
CC
거제
남지
##oT
홍대
압축
연소
심리학
중형
직권
나눌
보너스
견인
멈춰
유령
공통점
자립
##슬림
원금
음에도
긴장감
려다
1983
중심지
물체
알뜰
아프가니스탄
들으면
오토바이
플레이오프
##로움
마술
민속
약정
자선
티셔츠
유포
정조
성명서
모호
들렸
과태료
오스트리아
마찰
행하
무슬림
거꾸
되돌아
국군
표결
으라고
##개발
달려가
##민주
인조
##ug
누릴
벤츠
시속
느냐는
조종사
카를
볶음
##셀로나
봉사자
유신
후계
심심
바르셀로나
양반
이노
저격
끼치
선조
필립
승점
신원
교감
며느리
오리지
중진
방문객
이뤘
천하
접시
카운티
모토
시진핑
##매도
덩어리
차익
상관없
항해
순찰
##ver
데스
실리콘
존슨
##평가
포스터
샤워
창구
##운다
감찰
##LL
세균
##퍼런스
욕설
개개
대왕
수제
화두
갑니다
텐트
박상
리버풀
강변
대리점
스노
객실
배추
정문
##타리
시카고
평론가
회생
##멘터리
쿠데
미분
제치
무늬
착륙
##걸리
씨앗
##살이
냉동
쏠리
발판
무단
편한
실버
위임
외쳤
소설가
공연장
IoT
노숙
위헌
부른
넘쳐
싱크
보단
DM
온천
##경기
정몽
잔치
재킷
잠들
자영업
보람
상시
다큐멘터리
박성
달의
움직일
##ock
정진
영등포
정립
대포
주둔
서적
##레이터
파동
김형
상수
선관위
권역
막걸리
악용
##지기
정년
매개
악재
채취
액수
하락세
사직
##olog
다채
외식
근절
##다임
보선
##오리
패러다임
꼼꼼히
망치
준의
105
막히
한중
달라졌
징수
##커스
용병
재선
비대위
취했
구급
끈다
여름철
내신
국수
리아
1200
입단
침투
정자
종로구
이상인
걸어가
청취
##90
적당히
math
이송
에릭
은폐
##철도
걸까
돌아올
훌쩍
안성
망명
ㅜㅜ
진이
마르크스
부엌
##LS
기득
동정
강정
면모
리비아
김선
임용
##연대
이겼
중세
괜히
##저우
강서
구장
##지대
방출
고등학생
센스
AS
미미
이해관계
실습
ar
자유주의
하고
##ES
오만
쿼터
경쟁자
##ohn
##테르
##one
합니까
나치
외상
도장
줄곧
정답
두꺼
한인
접종
##붙이
달라진
챔피언십
후지
##매김
시일
거꾸로
이승만
쌍둥이
자리매김
서정
마사지
##방울
##나물
염증
공습
키즈
##저트
에버
국악
회화
연일
응답자
지식인
일본어
정시
1981
이식
##투스
냉정
강력히
한다며
쿠폰
매립
차리
더라면
시아
김승
유머
강자
##bc
우아
실상
발자
구절
퇴진
일괄
토너
프레스
기생
이브
중소형
치과
김장
식탁
숨졌
##가족
저지르
ET
군산
우물
##ational
보건복
쏟아져
SW
복사
흉기
늑대
자란
니콜
입대
표출
##북자
해야지
빠질
##팡이
뚜껑
무겁
##에르
장마
전두
민사
VR
증가세
##틀러
비춰
걸림
독립운동
이원
##르르
가르침
pro
##레나
엑스포
##센티브
산악
왕실
인센티브
낙관
전문점
프로세스
페미
미얀
코믹
슬픈
넘겼
기습
낙하
an
결산
옮긴
LCD
통산
##호텔
간신히
연체
친정
##본부
연쇄
2500
테니
##유예
교양
미성
##pp
수비수
할당
에르
부임
실린
바나
생각나
마는
불린다
가혹
##ann
해피
트윗
한잔
360
튀어나
동호
추운
잔디
인텔
각별
갇혀
협동조합
불참
나기
정류
버거
딜러
메디
##시설
김한
AR
Mr
ex
##시스코
다투
주어지
신한은행
충당
가로막
강수
과천
친화
도널드
사적
원했
조장
통사
뒤따
##노스
억지로
밸리
##플러스
AT
매물
황의
자택
다이아몬드
문단
포르투갈
입자
담론
BBC
디의
화산
살균
나비
##기금
충동
선보일
아미
염색
버터
##어스
실려
창설
골자
불공정
상표
대검
겁니까
노려
표적
향이
입체
주신
##iss
##뜨린
선이
학계
가이드라인
동대문
권익
급하
이목
맛보
양해
폭염
니스
모자라
##OP
초상
절벽
작곡가
원수
라인업
##소문
호가
연초
디저트
1945
마른
명동
유보
접근성
권총
선별
섬세
##수기
인문학
털어놓
획정
라틴
던진
카지노
유니폼
이만
피난
국고
손바닥
노화
다운로드
관통
##자원
난리
딱딱
재즈
퇴출
할리우드
스티브
식단
##여행
재수
일으킬
프로모
법과
빅토
우산
지체
원로
하하
대담
해선
가파
정했
##ish
만료
홀딩
어딘가
가져야
각성
창단
이준
카카오톡
##기구
빠져나가
중앙지
딱히
스테이크
도마
빼놓
방송국
급감
##ost
꾸려
지켜야
창업자
정점
대입
회로
Cl
뜨거
부끄러
특사
더더
테니스
선동
훗날
사랑과
중국어
변명
지칭
수영장
필연
##AR
글쎄
리치
SC
##볶이
삼진
어마
소상
대권
동국
수고
백지
유로존
마인드
클러
자책
플로리다
그래요
##ley
깊숙
비박
II
그제
지난번
역동
가마
양주
복도
영하
호감
발상
세인
여배우
새삼
하청
쾌적
신차
돌연
동경
불명
온통
간혹
지면
헌재
제철
현관
두께
장단
인내
컬렉션
에볼
테이프
가축
급히
##신저
관하
말레
의정
환호
185
파우
인선
공구
더위
##벌이
마셨
돋보이
세인트
불길
보스턴
상봉
호흡기
떠들
동상
성별
##OR
만이
PS
시크
겨울철
말투
잇달
차선
민영화
증폭
자정
오리지널
##폴리오
##퇴근
거액
깃발
극의
몰락
헨리
포트폴리오
게끔
전동
내년도
언의
우월
그쪽
대공
##프란
이시아
증오
국외
만인
##부인
기피
귀엽
휘발유
기리
적성
##감치
중얼
지킬
당뇨병
##찌감치
SD
아랫
인삼
마녀
보건복지부
웹툰
탐방
강구
액세
##pt
원산
방역
블로
캐피
유선
담임
풍의
관은
세계관
모듈
칼럼
핸드폰
##ps
##타임
플랜트
후진
습득
잡힌
메가
고령화
누리꾼
일당
실물
방울
낮춰
치료제
나폴
크레
재임
르노
찰스
배심
연고
인질
특강
역학
스프링
전대
오디션
##ism
외화
볼거리
올라왔
지워
권단
디즈
녹화
##act
종결
저주
광경
##시피
남매
가져왔
##셀러
국도
중학생
스레
태세
프로모션
서사
보병
두부
음식물
재편
입금
정례
달걀
우상
102
이민자
만찬
안보리
곡선
##무라
LPG
깔려
파스타
포즈
생략
볼까
은데요
1930
추종
그렸
걸림돌
익스
##나타
마셔
토니
해온
스톤
후유
벗어난
드려
스와
불쌍
그토록
느리
이온
MOU
줄어드
티비
웨어
떡볶이
수동
은의
해역
##키퍼
##뉴스
김주
현수
오른다
##징어
자재
##태프
예민
##고사
대미지
##그러
공자
사우스
친일
입히
도주
펼쳐진다
선수단
설득력
##디스
골키퍼
##인물
원시
된장
어이
긴밀
벌레
이진
125
맥스
고독
원동
봉쇄
내륙
기량
빌라
희귀
배고
신약
Bl
피크
##래프트
독려
바뀔
아담
전례
홈플러스
죽인
##겹살
공안
보궐
은혜
석사
공론
다가왔
지켰
지원자
원숭이
법상
의대
쌓이
쇠고기
트랜
가늠
이현
합계
운의
아크
가정의
도미
생물학
삼겹살
레알
##박스
원자재
연어
삼성그룹
마실
여우
##조사
표본
○○
공로
밀도
진통
결의안
사이클
행렬
분비
부친
빈번
수원시
게스트
방북
수목
추후
##프레
특례
길거리
움직여
##테이션
요한
보습
##잖아
동전
무사히
내세워
조현
박찬
과징금
바이올
죽였
문화유산
배구
벚꽃
송금
팽팽
##코드
1978
야심
시그
##루미
쿠키
선비
통계청
농어촌
꾸미
곤충
합치
출하
임진
친한
ph
방면
##라이트
가치관
동방
이시
통지
아테
벗겨
##ult
넘어선
외관
이뤄지는
EC
는구나
##동자
사리
가져올
지름
백두
##답니다
모방
아바
승자
유대인
행사장
가야
밀착
웨딩
공짜
기점
오키
워킹
경연
막강
##ign
##프란시스코
훈장
최경환
귀환
고심
핑계
도요타
샌프란시스코
조조
교복
백의
분자
##eal
보류
오름
주축
하지
모티브
쿠데타
평상
108
섰다
전두환
다녀왔
김종인
성주
원격
손잡
흥원
드린
절도
김준
연산
비비
전문의
십자가
이세
규탄
회의실
분수
문법
여담
소품
허물
불빛
제자리
재차
##월드
별개
뭔지
장래
CS
방패
스리
사지
파인
과열
##그리
##쓰기
코코
##TS
칠레
운동가
힐러리
몰두
선착
1973
금전
STX
사나이
불쾌
승격
오세
wh
유난
탈북자
##DA
고구마
유쾌
프랭
필터
강호
##협회
솜씨
월간
##az
MV
먹방
롯데마트
용납
신하
목이
활짝
환원
태권
##하루
CG
하버드
가진다
선점
스가
구인
출퇴근
행장
던전
이광
남양주
텃밭
직의
이불
집중력
최우수
다각
날카로운
전일
결과물
##기야
질주
피스
기저
법학
산지
관제
컨디션
세액
핀란드
러닝
다치
이뤄지고
수평
be
불평
국무부
생활비
택지
유교
##테랑
이케
칼리
유한
##로리
두뇌
포위
나자
양호
##때로
##추어
온실가스
1975
철학자
스캔들
엄중
우라
##부분
정보원
메신저
커서
에프
들어섰
사귀
대두
##겨운
학의
하이닉스
막혀
돌이
경감
손길
##ace
일종
서초구
조롱
초고
겹치
##도르
섹시
집합
##테스
##크리트
몰입
지친
보훈
국한
천지
단골
호조
처해
ed
대문
비준
항복
넷째
풍요
주어
그레
정찰
총체
판타지
천주교
##ach
실사
머신
나뭇
가져온
포격
조문
저조
TP
철의
동아일보
동문
스무
건가요
듭니다
추이
설이
출고
개개인
상고
어음
자민
지극히
시켜서
동조
찬반
옥상
안타까운
##고속도로
줄줄이
찌르
LI
돼지고기
장남
판교
퇴임
##소시엄
컨소시엄
붙인
##버님
기하
개량
담합
게요
##퍼드
가나
짐승
횡단
박재
김희
드러낸
붙였
##센스
피지
##게임
기념식
미처
공산주의
왕복
잭슨
가설
오징어
촉발
무능
회고
상단
수월
어린아이
123
노르웨이
보이스
##돌이
길러
불의
훔쳐
고양시
##신문
우체
셀프
디아
싸울
신재
##병원
경희
표창
살의
일찌감치
FIFA
산단
축복
관악
올라온
성찰
차이점
한복
말미
홀딩스
카운터
끓여
박태
기미
생겨나
주당
수중
내전
강진
미분양
사범
승계
니깐
뒤쪽
성희
파손
삽입
충고
불렸
적힌
으니까요
폭락
이렇게
배기
구이
1920
##로워
올라갈
행해
기용
소신
1974
천국
구출
총생
텍스
생전
내다보
외형
넓히
##ons
패의
블룸
##ys
옥수수
전승
홍성
됐으나
##ru
##대교
HP
아마추어
자비
회색
시흥
기꺼
##거래위
메카
손수
공정거래위
세븐
##pl
스러움
##균관
바를
여겼
아세
산업은행
Mar
정계
팀원
바치
184
수백만
특기
밤새
##조선
##스트리트
예뻐
패밀리
농부
장로
이순신
일화
##대기
대명
ES
듀얼
침공
형평
##다듬
노골
제동
디즈니
탐험
스타일링
도래
고위급
성남시
그까
일러스트
구동
동창
궁전
리콜
##ere
##orm
즈음
115
성균관
공평
진한
부속
원망
##무실
밸런스
소파
밥상
##────
어떡
멋지
무수
이화
다지
남미
450
하드웨어
번개
##끼리
아이디
엘리자
때때로
레전
##킨다
내정자
달라질
나간다
1976
금고
미묘
103
토마스
생존자
숨겨진
김문
음란
##중국
서원
대교
수반
##천군
태그
볼트
샘플
해수욕장
서른
저절
올리브
##출산
1972
볼넷
상급
미야
KBO
상류
토양
시내버스
미끄러
압수
잔액
걸린다
존스
##able
##cc
##나와
저절로
문체
해병대
KO
여정
콘크리트
대동
베드
고종
다니엘
##IT
불타
마음껏
항소심
다듬
초코
보정
##어마
남짓
산학
##어붙
어스
울려
부평
집행유예
보호법
##벨트
수거
친다
저질렀
말기
나르
냉전
##높이
베테랑
##금자리
소방서
왕위
제작사
머물러
##LED
방사선
##처분
미나
자궁
보금자리
상습
사신
로선
집어넣
봉인
혼의
대위
세율
월스트리트
구형
존재감
그릴
입문
기꺼이
사관
불어넣
가급
군중
투구
원소
##티스
요렇
햇볕
흔한
찾아와
들러
합당
포상
##오카
면도
약국
끌어올리
111
고난
펼칠
쌓인
불출
산재
거인
브레
스물
##ner
라구
적폐
범의
##HD
##도어
한식
남측
##듀서
적절히
넘긴
여력
##구석
살아온
영동
유관
##으므로
프로듀서
2030
고로
마세요
이쁘
시드니
정류장
도매
씨도
학사
220
기부금
슈팅
산타
늘릴
##리안
행적
국책
ad
공적
MP
로그
명사
요렇게
문헌
화염
노라
색이
가이
여긴
최후
각광
하와이
앞뒤
##베트
트레이드
##럴드
등장인물
로움
기와
꼬마
사죄
설화
조형
비어
문예
유난히
아부
탈리
##고래
고액
재빨리
복권
드라이버
신지
두지
중위
파스
헤지
할까요
결말
국기
계통
도피
징후
가디
송이
울릉
히틀러
go
주스
미얀마
김영삼
샴푸
##ON
기종
결집
카스
##권력
박진
##소년
##지르
경쟁사
240
명명
환급
##ier
섞여
미팅
사나
체코
대표단
차종
호전
외계
red
가꾸
넥슨
바나나
##ton
수첩
SA
주입
John
미인
##나들
후유증
##성이
로스쿨
박용
food
쓰인다
컨텐츠
##ivers
Ph
잠자리
의료진
시동
질투
사생활
시멘트
공대
실세
재테크
민족주의
일리
벗어날
아이콘
지지층
##라이나
가급적
잊어버
##바겐
미성년
치마
사회단체
국영
절제
상반
무제한
무자
나눴
섞인
##tern
관습
총생산
빈도
겹쳐
블리
교향
식별
유공
저마
동등
별의
워커
시력
장애물
야스
스피커
폐업
##rou
환불
유기농
진해
침착
##벤션
##벌레
탄도
##현실
##old
##평균
소방관
리처
정반
벅스
열흘
겸손
망원
##런트
달라진다
본점
안과
이룬
변환
악영향
주지사
인출
접대
어마어마
##RI
사육
직구
직결
이루어진다
칼로리
평의
메트로
더더욱
독창
손흥
여도
묻혀
##버려
변동성
타수
메탈
애요
##전력
르네
##습기
폭스바겐
1977
##ash
청렴
서열
주춤
치른
특별시
는군
##하라
리오
##네스코
손흥민
납세
##rom
속옷
아쿠
거시
##발전
모였
배워
견딜
반갑
반문
재앙
호박
플래시
농축
사외
퍼시
메타
레전드
효능
it
경인
컨벤션
##티지
공예
받아들였
타가
##사람
색다른
종말
간과
욕의
접한
성령
제작자
물리학
머무르
교직원
수량
대국민
소서
NP
도가
그런가
력사
리터
Wh
구슬
철폐
승차
##라미
정정
넓혀
밝힐
##IST
외과
시설물
유언
후계자
클렌
##서스
동요
사사
##글라스
표절
사촌
회식
눈부
성희롱
공청
##르드
##퍼니
마그
##이팅
타이거
갈색
사옥
스윙
임하
##마리
##포터
큰일
##연합
법관
비빔
왼손
채팅
동아시아
손질
폭포
한라
국지
원만
이창
전단
진작
열망
바리
브렉
쓸모
감행
환수
살아나
알라
유네스코
일까요
굴러
##arl
브래
안전성
교전
정장
##ite
수와
체납
메이커
##위치
cl
DS
야드
끌어내
귀중
동점
박의
슬라이
이용객
발이
##백과
##스틱
하필
능동
분화
코스트
김윤
증액
106
비아
##모습
##태우
오산
헤르
기업가
김연아
줄였
매직
ms
지휘관
##비치
노원
지질
##che
##화물
국제공항
콜롬
##마켓
빼돌
어때
미달
친근
미주
따돌
주교
방사능
##디움
망가
실종자
나뉜
테크노
시전
신청서
세입자
파급
잇따르
남산
대의원
페리
미생
악몽
각도
헝가리
세이브
으세요
##라비아
경품
구조물
았었
가면
하도급
안티
##소통
기념관
동반자
가든
본관
사주
반납
모른
전념
생명체
관련자
설마
거슬러
학점
해적
##orld
내재
##줄기
앙의
인양
표방
바짝
공무
이색
느껴진다
수사관
용사
걸어서
뒤지
음주운전
아주머니
신뢰도
김창
카트
돌려주
by
마운드
불펜
##te
탈모
복지부
여행자
어미
An
신다
애완
##상부
정형
포수
수필
나카
스폰
inst
요령
약탈
영수
나주
합격자
휴직
이산화
##일드
이산가족
후쿠시마
고비
악수
내려갔
소고기
궁금증
##BA
풍기
맞물려
오지
저출산
컴퍼니
파이프
강대
고아
왔으며
##학규
지기
1968
추궁
미디
오너
공과
##경북
은행장
유상
호위
연평도
비웃
타락
1971
노년
목적지
104
소명
테라
의사소통
자치구
as
대요
글쓰기
공모전
NS
멀쩡
침실
호스
특보
원주민
##허가
확진
임박
튀김
까진
예년
반감
입각
통찰
절정
묵묵
개원
금세
기로
애널
심층
쓸데
건설업
기밀
맞붙
##are
챙긴
지리산
감과
전시관
문항
웨일
바닷가
도어
183
늘렸
공격수
비서실
대책위
익명
인맥
당대
쫓아
중력
애써
아버님
샤오
슬로건
친분
여행사
코디
##십자
갱신
열람
##가와
액체
신작
##동원
유익
화석
구실
##뉴얼
##고루
무서워
주식회사
번쩍
레몬
나옵니다
109
장터
저택
고마워
미학
회복세
대타
시뮬
일생
주니어
간첩
란다
무궁
179
거래일
동반성
분주
##내기
맥도
변한
##하이
무심
신문사
잔류
회차
조별
휴전
리처드
포천
키울
에볼라
페널
자취
교리
잠자
만두
주저앉
카타르
다카
관이
차입
중상
전처
음의
전성기
그라운드
풍선
죽일
##ile
순조
##운용
개미
No
EBS
가처분
유무
시공사
유서
우익
뉴타운
대성
휘말
아인
버지
am
국사
##엑스
##ics
공소
김명
보태
임종
##사태
쉬워
##러져
법규
접전
열광
천정
소행
광대
소박
AF
내보내
한옥
원본
자수
속하
그리워
청계
##법인
효성
##iel
파기
어업
사업가
사표
##투리
조그만
지중
오마이
증설
대본
설교
끼워
시당
추리
##ide
바늘
원안
들여다
Pl
조수
대마
107
##뜨려
로라
사치
무방
양대
조이
##GA
##라노
말자
한국사
단연
스며
강국
학생과
기절
콜로
영재
맛스타
납입
여느
맹세
멸종
채의
관문
미스트
쓰러지
##다나
소가
비관
할지라도
##퀘어
##총액
이즈
매사
##주택
인플레이션
키웠
장자
휘두르
단풍
공이
모조리
##ove
이리저리
멜로
시가총액
Ex
워크숍
육의
위키백과
레지
어째서
러블
캐롤
속한다
##orea
상이
수산물
후반기
##박이
대령
조업
##ction
동사
호재
배심원
적금
손꼽
돌진
##카와
난의
웃기
희미
한상
사학
##들인
냉각
이별
버디
패권
부의장
마진
골고루
쿠션
성전
원서
##수리
##보기
내세웠
결실
균열
경영학
지회
강물
캄보
필라
정선
수납
벌일
레시피
재래
기술자
이따
PR
대림
실어
마차
꼼수
했을까
멋있
잊혀
중장
엄지
이재용
프렌
##사관
손학규
패스트
##AC
me
유병
떠오른
본성
인위
출혈
이천
취직
##rist
태극기
135
포크
##파리
떨어뜨리
유능
지에
처치
아웃도어
어치
막말
모션
##ina
얼어붙
##orn
여행객
코끼리
공신
당근
부지런
청중
해준
원회
kt
##기지
##무게
또래
##턴트
소총
with
검열
예매
181
일조
적다
다중
용감
스페이스
날렸
부통령
요동
최장
로맨스
몸무게
해커
강북
싸웠
다스리
tr
결선
탐지
대놓
수요자
명상
수출입
벼슬
세션
흘렀
단기간
산이
통역
녹차
대용
##렁이
강점기
김유
1969
##찌개
질렀
김천
아이언
##말라
직위
강타
내쉬
박지성
##꿈치
##재단
문경
대도
승률
심야
피력
샌드위치
설레
어휘
발부
슬프
가미
일컫
토막
허벅
AD
세탁기
특구
민선
##ance
매뉴얼
허무
해냈
비참
모던
묶여
풍속
급한
지주회사
Sch
관내
산맥
JT
과언
터졌
민자
##aver
십니다
놀이터
소동
178
셰프
에디
이룩
캄보디아
스태프
##⠀⠀
121
경지
규격
블라디
약관
이한
##제철
175
159
남아공
풍자
북극
##내셔널
간다는
남해
급진
수염
미혼
부결
소진
타고
경신
구금
세자
알루미
와이파이
인터내셔널
역세
총무
패러디
맨날
구독
내뱉
킬로미터
시시
번영
무성
일회
회사채
방탄
##슈타인
##보험
늘어
이동하
라이언
선호도
거미
여가
괴롭히
##oo
곤두
혜의
드러난다
주상
공청회
귀한
삼촌
달달
돌풍
##클럽
##페이
동물원
습지
발족
명도
판도
##모니
스티커
파이어
퀴즈
벽돌
손톱
수없
트러
부담금
저술
정우
강성
드레
태워
밝혀진
음악회
쪼개
아리랑
자산운용
따른다
당정
한껏
항쟁
조경
함량
방화
보낸다
피드
다뤄
쇼트
세단
NY
행방
셀카
초창
고찰
취재진
공표
터진
패드
상선
추신
리베
스타디움
산행
다저스
퍼시픽
##김없이
부드러
적잖
건담
라마
는커녕
시련
필사
거둘
절박
오디오
##브라
일어서
명인
접어
당도
상거래
외래
Ad
◀▶
여럿
조속히
화자
##TC
소울
1948
액세서리
제트
##훼손
현수막
우량
##att
뒤덮
##슬리
장시간
중원
보상금
블룸버그
집니다
박모
##나드
거창
빨래
특급
알레르기
##페이스
현존
##ky
국회법
트레이닝
##기름
카리스
퇴장
응하
모닝
##베이스
김인
눈높이
지로
재판관
인지라
떨리
어가
다녀온
인플
코르
명심
독성
서한
둥지
원심
조준
번갈
도망치
울타리
윤석
극우
급기야
알루미늄
ID
산물
128
1963
윈도우
무안
증자
파이낸
조계
락의
1965
TH
전향
명예훼손
Sc
실존
환기
로워
마리가
##릴라
심포
1800
##yst
News
풍력
덩치
랭크
경제성장
연준
중고차
카레
ㆍ중
AM
CF
흉내
바에
스케줄
아무렇
목동
파울
타깃
##ott
터뜨렸
격투
##팩트
자니
원동력
##ax
푸짐
무분
##ae
야구장
둘레
잡혔
내버려
신전
세심
숭배
노동력
면역력
따랐
당권
장편
외교관
아토
기업체
충주
노사정
눈썹
요거
인들
눈동자
치렀
미시
안면
##und
장담
로빈
##무니
수없이
어야지
PB
재심
다녀오
예보
데려가
조망
장부
함양
공수
타선
심문
##ㅋㅋ
차명
##주얼
182
유희
거센
남다른
선체
얼룩
서귀
컴백
벌어질
슬퍼
김밥
##올랐
농지
내포
병기
애기
배급
생체
느니
방대
만장
시연
230
일찍이
하차
한국전력
슈퍼마켓
비방
일인
모발
북방
허공
##ban
##미르
실재
침수
가습기
도당
판문
농약
심플
은근히
##구장
기력
1967
유재
추기
페널티
브로드
터뜨리
밀가루
회의소
본토
저리
김두
야말로
축의
배임
은은
공휴
You
영화관
순례
아모
비주얼
농수
##가치
편찬
##르타
흡입
##마을
훔친
유가증권
##공단
살아갈
대리인
##OD
기고
##BI
##지도
145
바이어
선교사
모로
113
##어야
영유
틀리
소리쳤
##순환
플랫폼
구가
오른손
클러스터
서산
122
견이
ml
호칭
오찬
미쓰
졌으며
항로
수료
친숙
##여겨
관철
긴축
##ink
캐주얼
박인
오라
지휘자
각인
운수
중남
사각지대
찬양
남북한
에드워드
퀄리티
도난
로열
식감
한발
##anc
방어력
순차
우체국
약품
광물
어둡
뻔했
가평
조영
아프간
스코어
자이언
조처
더운
화랑
##ead
여태
##int
##날레
몰렸
양평
특색
##플렉스
흘러가
##갈비
숙련
백작
총알
판례
이놈
제대
##저것
흡사
이것저것
네오
의아
꺼리
보건소
베스트셀러
##쿠라
멍청
##ox
##ree
거리의
후원금
더듬
순회
서두르
뜻밖
pr
눈여겨
박해
미라
송전
승려
##경제
하마
일축
잣대
통신망
책임감
맛과
케리
쓰였
오프닝
띈다
캐리
##란트
##든지
합산
포부
산불
##ous
나흘
루시
반론
의구
##엘라
고부
조개
드럼
먹여
##스틴
##HO
송파구
노부
생명력
품종
곡물
힙합
완성도
뻔한
지역민
엘리자베스
해답
정가
목재
##보이
급속히
비주류
세라
세례
성급
지음
공보
남이
동거
기침
버릇
##row
강당
챌린
부끄럽
평면
둔다
겠죠
우승자
하루하루
헤매
속초
일한
축사
직책
거쳐야
극도
비와
미수
다정
이이
세분
##방송
##itt
불사
DB
원도
이방
친밀
의거
효소
등극
레일
토트
부흥
서귀포
질러
소독
쓰인
유모
남서
명함
155
##ai
스트라이커
항암
박병
떠돌
잡스
동탄
로우
미워
포용
진열
동인
테일
무고
저해
제국주의
업과
경직
발렌
기일
##메이
쓰러져
참치
코카
1962
울트라
꺼냈
##망이
바꿔야
악취
스텔
올린다
##애나
냐며
흘렸
기수
번식
165
구비
허벅지
고안
광의
벽화
정제
품은
토종
##ual
EX
애널리스트
의왕
후자
1300
커지
공휴일
견고
승소
중증
##ake
나리
스퀘어
거침
당은
고분
타석
북서
국과
화사
##결승
ETF
UA
폭우
##ime
펼친
정이
##국적
남경
곧장
어머님
루비
더욱더
팽창
핀테크
불거진
루스
행인
##누스
타지
##첨단
마우스
어긋나
올라간
LS
볼륨
돈의
개신
##enn
라던
은밀
무분별
리우
성모
입이
의구심
보답
##지만
##금리
절단
환산
연중
아우디
유정
유류
토스
발발
교토
비법
하단
작사
Tr
1600
트랜스
바비
##파이어
암흑
윤곽
부원
틀린
con
##기사
성원
다자
깨지
본명
버드
도망가
문신
시국
뮌헨
페인트
토너먼트
서문
키운
##크림
OLED
루수
첨부
154
끊임없
신영
다물
최재
불상
큐브
아테네
DC
158
제인
틈새
속해
듬뿍
최상위
다방
함수
치료법
서해안
발자국
##하마
un
요정
직관
오키나와
격파
##레일
지뢰
최첨단
117
KCC
##sp
스트리
스트리트
응모
##승부
똑바로
##훈련
마리오
118
차이나
공관
김혜
곡이
카리스마
초창기
늦추
흘려
태안
##수원
자랐
루타
보호자
취업자
판문점
빅토리아
엄정
브라우
서남
이룬다
연주자
서재
파르
주십시오
퇴원
쇼크
세울
##젤레스
왕비
팔렸
##드름
누락
화법
바스
정령
들어와서
JTBC
우뚝
추대
하룻
사라진다
원거리
경비원
도울
까다로운
스위치
##시스트
이윽
사시
택하
알아차
##rig
만세
견뎌
##ech
심도
호환
부두
##부진
빨간색
황교
서비스업
심혈
오리온
바그
불려
엿볼
초밥
케네
수정안
실증
다쳤
외환은행
제왕
촌의
MVP
두드러
카테
연합군
파행
움직였
휴게소
##같이
210
파이터
쏟아졌
차츰
1940
기류
줄지
이나마
흔하
여타
반경
대구경북
Con
시킴
노란색
윌리엄스
가명
찬사
한수
##아나
로이터
리본
플레
이긴
낯설
도자기
이건희
체온
알맞
소나
척도
살포
##통일
나미
이윽고
청량
##바꿈
##ID
스폰서
유키
종식
부인의
경이
##ition
일간지
유공자
1964
연못
하신
잡아먹
뿌듯
시조
시킨다는
돌봄
안토
리바
방이
##금속
대란
즉석
##곡동
감고
반값
올라와
증서
감도
베일
었었
sc
인데다
승마
제갈
늘어놓
##pg
성지
공용
사당
평안
데가
장년
나날
접할
티어
##클린
발리
태백
이견
경성
부응
도라
활동가
적법
##ome
통째
1900
pl
쓸쓸
깨끗이
막바지
테마파크
서대문
양당
마오
나스
소변
초안
##노이
750
지으며
더군다나
기질
정경
##무진
주범
WS
달빛
at
하계
카톡
위태
유흥
##금융
사살
약혼
MD
naver
드립
두드리
공명
매콤
투신
버블
브로커
무너져
흩어져
교차로
황사
무거
##에이
난방
상회
숙이
##IN
바빠
NLL
해독
아름다움을
느린
스틱
후방
김원
116
##예술
##이나
게시물
색채
사탕
중추
내려와
안락
불출마
##프스
개구리
##ale
아메리
사채
내성
담뱃
들으
##체어
##네마
수표
부상자
도보
국유
김관
요코
반기문
후반부
물자
대관
##원지
생산자
미쳐
바우
저마다
거둬
엉망
낙하산
##AA
비누
돌아서
선인
##희정
이뤄져야
종속
손잡이
신진
보직
글의
권영
휠체어
늘어난다
꼼짝
연임
재가
돌아섰
ab
##ement
##ix
홍삼
살펴볼
원산지
준우
드릴게요
도무지
분에
소생
달리기
하룻밤
내려다보
그물
##iet
기치
경희대
수박
서강
율의
지평
입안
미약
##외과
편향
자릿
PP
베풀
벌리
교보
목걸이
즉위
코오
##아먹
메이드
127
강인
계몽
제각
아사히
결핍
동산
덧붙여
인분
강했
반장
디테일
수식
소홀히
##uk
점거
프로그래
황교안
입당
히스
도끼
꼽혔
였음
위쪽
명과
기관장
펼쳐진
##쿠스
돌아간
157
즐겼
자구
파편
지역인
털어
##버거
문턱
##깨비
남아프리카
RO
근간
아아
##상스
체조
트리플
소이
우루
남구
보인다고
가닥
요르
Ed
시합
일쑤
신음
MA
선과
차체
아무개
CO
육수
se
Br
마카
자각
하사
척의
변론
파헤
애쓰
택했
배부
나뉜다
실크
태아
강등
너스
응급실
경악
윤상
페루
폭주
버지니아
요트
경색
선글라스
정중
분식
갖가지
속출
독감
캐시
타카
자생
악순환
탈세
AC
탄산
어학
의존도
합시다
##막이
제니
아비
종자
##포드
우파
건넸
##케이
성산
유격
##ology
주공
##셔리
달려들
강전
싸워
##필더
##rid
막연
럭셔리
미드필더
각계
착취
찾아갔
군포
옥의
##교도
고모
##aily
탈바꿈
절로
당면
들어설
화질
파란색
프로세서
177
부를
제지
반가
자처
베타
##전지
점진
커진
출발점
어용
개수
임산부
북동
##ade
지만은
리퍼
다우
달러화
만난다
스탈
셔도
##질러
따름
왜냐면
평상시
지나갔
코오롱
두렵
칼라
가디언
혼돈
사라질
미셸
영도
활발히
까마
얻어
리어
쾌감
앞쪽
##다드
누이
친해
개그맨
무라
해저
매스
LNG
처우
웅진
질타
증강
분홍
염소
수퍼
종북
지녔
피싱
온전히
##구멍
경상북도
저쪽
건축가
당혹
그래프
경산
역과
저거
르네상스
##리나
모셔
들려주
롯데월드
트로피
올스타
정재
토요
시뮬레이션
##합니다
급변
정주
##ank
단추
테일러
갈래
부로
##중국해
갑옷
탈피
약사
사법부
앨런
구부
PM
방송인
모처럼
팔려
달아나
시어머니
시마
여진
쳐서
1966
음향
##ins
낙태
##차림
티베트
잉여
##자유
임차인
맞대결
존나
##뜨릴
##ans
훔치
##거지
맛볼
오크
깊숙이
거취
Dav
##나가
##ris
대지진
시종
여관
다국적
담의
대우건설
명제
연기자
도왔
1961
졸라
EP
156
배낭
실업자
IBM
내셔널
px
소란
끌어들이
헬리
저번
배트
##erv
허구
사용량
냄비
변이
이어받
온의
Univers
모릅니다
탈레
쉼터
##케인
로렌
원치
박경
사회학
##여대
천문학
알선
전염병
결여
##커트
여객기
거요
강철
개교
마누
인수위
발산
설령
원자로
##11
번은
좌익
비엔
124
라이더
모터쇼
##언스
공채
##버섯
144
두꺼운
신주
묘한
앞섰
디바
생소
세속
헤럴드
##튿날
진흙
균형발전
가결
퇴직금
수자원
욕실
##필드
오타
장만
미성년자
충실히
MM
이튿날
당한다
##숭아
깨우
요리사
건대
갈리
성완
상응
혈당
유치에
라우
도로공사
구르
퍼스트
목격자
종가
##살렘
계셨
##ett
여행지
개막식
만끽
아오
치중
##루살렘
성기
추기경
모건
프랑크
대면
VIP
거쳤
김구
놀랄
양면
혼잡
헤어지
실에
선풍
추신수
신곡
##ull
##재판
##eth
힘쓰
##BM
반입
##퇴직
신데
든가
스톱
청이
##클리
불문
무더기
##EN
복선
일보
넘어갔
형법
챙겼
들판
아우르
예견
이양
구매자
스릴
신청자
##축구
벌인다
마마
##시브
기념일
견지
구한
두피
##투자
상부
연탄
##과이
하소연
마니아
용돈
내린다
담장
시간대
복판
##들였
##이지리아
맞췄
니트
SKT
물려받
위배
성완종
연회
한양대
커져
내몰
과거사
전전
지날
수녀
마린
162
연행
물리치
사카
나이지리아
능가
엎드
차등
엘프
키보드
칼날
모노
어울려
활주
##면적
경기력
구했
폭파
데이터베이스
나폴레
아세안
지탱
열의
##수산부
직격
준결승
증명서
뮤지션
##관광
가위
김부
모여서
##지오
내실
중량
세일즈
도우미
단단히
나열
순방
인방
해인
##수엘라
감금
고품
세가
바이올린
왕성
##악산
타로
융자
국공
숙명
젤리
드루
아메리칸
잔혹
미숙
280
어느덧
묵묵히
사절
신안
몰려들
목회
##기부
무실
유수
평판
생겨났
심부
132
탈레반
1946
으실
##불리
모텔
바닷물
한시
배움
죄책
최영
엔지니어링
품격
일깨
##에스
색소
이화여대
꾀하
이호
육지
운임
##ft
본체
거스
현미
신생아
스튜어
일감
126
요가
하얗
요르단
137
유방암
정사
외고
죄인
라가
이관
Press
##시대
왔어요
##lic
클리닉
##다녔
##다이
서리
마땅히
##구치
온난
##앤젤레스
당나라
햄버거
리프
불화
찔러
베네수엘라
##짜기
168
골목길
대내
이대호
시즈
모른다고
돌격
레바
##pe
트윈
로스앤젤레스
한성
난감
들려왔
영국인
기울였
만연
시경
변모
출원
가솔
엣지
##무늬
세워진
루카
칼슘
테러리스트
방수
사우디아
##ower
기나
비평가
병합
수에
악명
고법
##12
무르
옮김
##부모
교내
양말
끄덕였
염원
자루
xx
코노
브라이언
슈트
드로
변질
나폴레옹
사르
상설
계수
콜롬비아
터무니
152
서인
UAE
요란
다발
아랑
##수아
인해서
입주자
포화
펜션
개막전
Man
더러운
GT
뇌졸
좁혀
330
끌어안
갯벌
mc
장도
총독
##장면
성직자
##르도
보가
허술
코엑스
경합
물기
우동
경마
자작
무승부
파이낸셜
만을
mar
펼친다
지금껏
정차
##베리아
아드
초조
사우디아라비아
아찔
365
가두
##세기
순매도
휴업
320
역점
존엄
황우
털어놨
박준
##ll
어필
배드
##ife
종편
청각
막장
매달려
돌려받
##바탕
기색
치사
쇠퇴
움켜
은평
클렌징
어기
배열
내비쳤
정연
농단
##모로
##갈이
진행자
##amp
하프
139
창의력
면밀히
수락
세밀
##보냈
프린터
상여
마포구
사슴
소시
기저귀
맛나
대법원장
분대
아래쪽
놈의
로이
중남미
133
해양수산부
계획서
월등
업주
프로필
한몫
##날드
라운
운영비
최고위
올드
수용소
여주인
개표
통틀
##oon
##ool
무너졌
김우
미녀
서너
징역형
알아내
그려진
분실
270
NG
##미안
후인
번거
케네디
맞벌이
문학상
자행
공허
태양의
납니다
되새
치켜
몰린
164
간다고
성북
##올라
지나간
물러났
정현
무형
##무장
선착순
기내
속삭
불거지
영지
원점
##라기
해낼
선보여
무공
톡톡히
자백
작물
기다려야
짬뽕
투여
메르켈
간절히
퍼부
과격
커스
부추기
데스크
일어난다
반죽
온전
##들목
말려
후문
##레스테
BB
호황
매몰
주어진다
센트럴
##elf
김영란
##나항공
월평균
153
만져
원룸
대나무
연정
나들목
바울
아깝
애호
아시아나항공
내려왔
숙성
##더슨
교육비
취득세
담백
소소
136
##ase
존속
골퍼
빌미
##닐라
##암동
강기
사대
기다릴
불씨
의료비
##토스
니코
이쁜
우주선
꼬박
플라이
쳐들
하동
선뜻
군민
스테이
##LC
##그레
씁쓸
해발
휘둘
우측
뒷면
자막
피했
이재명
FT
그친
병실
깨달음
길드
중앙선
스쳐
예루살렘
영업자
계약직
는데다
1400
엇갈리
지쳐
스케이팅
창간
피겨
독주
계류
3500
공범
타고난
이빨
##마르
성벽
##경원
익혀
망하
BC
거란
김미
태권도
정부군
시책
미러
아이러
방콕
웃돌
김한길
카자
##VD
여러모로
미친다
살균제
149
전경련
##삼성
관리법
##숨에
단숨에
마스
개인전
준우승
자손
황태
##yn
미르
할부
##레스테롤
##oth
스타크
어이없
편집자
남학생
한파
jpg
폴리스
치부
호세
광교
여중
그랑
무어
복종
제게
거주자
거라
콜레스테롤
브리지
방황
정준
##연맹
관직
모음
살릴
굶주
관광공사
그랜
이완구
초라
찾아보기
김세
##즈키
적십자
치러진
의논
고질
민법
VS
간소
헤아
올라간다
1949
WSJ
무색
찬스
##러기
##up
교단
여객선
감리
루프
헬로
##너무
승강장
케냐
부가가치
##ike
스냅
탁자
무너진
노래방
구직
태종
##oul
##정식
가성
편법
연구회
양손
체내
윌슨
서운
입소문
불복
고함
죄책감
직속
발전기
퇴치
정액
안목
다케
에티
ELS
옥스
셔틀
기본법
케빈
마주치
##me
Le
고운
사수
즐거워
몸통
어버
260
김문수
나와야
박기
굴욕
어쩐
##사키
찌푸
스러울
가솔린
유화
불러일으키
루머
하우
뱅킹
펌프
군사력
전셋
천황
쏘나타
거들
코팅
팬택
##트릭
재검
수인
계명
NAS
지방세
신용카드
DMZ
추론
163
##장구
138
##제리
국보
아리스
내려온
주임
상큼
심신
항일
각질
저명
##ave
루터
반항
꼭대기
만족도
가열
태자
##킨스
신속히
나아갈
신정
129
지독
달인
대열
148
고소득
##경찰
파출
##맞이
둥근
부어
성도
초연
미생물
MW
안중
잔해
촉각
iOS
203
내려앉
로프
차마
##자재
달해
대졸
속내
176
정해져
가락
CA
슬림
바뀐다
전망대
위함
##데기
록의
커진다
##부상
춤추
미스터리
더미
이강
SF
이계
넘어갈
활주로
귀농
최정
여겨졌
##co
fl
자릿수
두들
관례
김학
턱없이
오션
양복
주총
불로
뜯어
신병
##air
착하
잠겨
와일드
##세데스
관리비
당론
심기
직영
로맨틱
공황
깨어나
메르세데스
FM
비키
부끄러운
형벌
##넘기
##연구원
영천
스톡
화웨이
중성
##임자
가부
##행사
서포터
건드리
챌린지
##ater
들으며
##미디어
알렉산더
카운트
인은
명백히
분신
몸짓
##yle
이제야
부딪히
AFP
PE
공교
조연
##자유구역
최악
불법행위
##청사
독립성
북경
완주
당진
##는데
담겼
대표자
링컨
##콥터
반짝이
전세금
부디
불허
평점
##다운
물놀이
일차
PK
토트넘
총의
영수증
생강
가리킨다
수십억
봉지
커리
공법
내시
고와
특전
##퉁이
새겨진
어김없이
경제자유구역
정관용
끓이
알렉스
##안전
쟁이
미용실
펀치
들어야
##인다는
분사
##납니다
##거스
뾰족
금이
증기
커리어
버스터
식용
에이전
시발
151
양수
조직원
관대
방사성
양천
코인
애리
최태
가출
매듭
글래
이국
수컷
양양
이정현
프라임
되돌려
과감히
외우
##렉터
시안
지켜봐야
와야
정반대
im
센티
넘버
비우
띄우
외로움
##슬라
조지아
호화
신입생
커튼
너무너무
내서
북적
호프
아쉬워
아날
나타낸다
수레
크리스티
어민
여드름
##ric
탈의
판다
세관
운전사
당당히
오메
요미
당첨자
벌어들
장안
##폭력
막힌
골절
##하늘
어버이
실험실
모아서
주심
구타
알림
연차
예술인
뭉치
복직
구만
무모
구급차
##워진
현대인
돌파구
146
무더위
명중
사상의
초선
서부터
##버린
주의보
헬리콥터
다급
신동빈
랜덤
차갑
모나
침범
##ild
파이널
급급
한심
##체인
신다면
레코드
정은
##로그램
서지
황폐
금기
BS
마블
운운
172
1100
노린
세팅
어려서
거듭나
더럽
유태
충무
끈질
지중해
리메
웰빙
낙인
탈환
카메론
끝없이
붙들
##ystem
미련
##ME
롬니
원한다
해외여행
종양
스테이션
가칭
효자
됐었
삼가
지청
##텍스
싱싱
##시티
##무소
불고기
경량
##왜란
도루
베이커
공권력
밀레
자산관리
은메달
##자락
술부
오카
탈취
전셋값
임진왜란
구자
멸치
##해야
##슬링
빼내
얼리
정글
이뤄져
팬츠
마취
저감
일세
토르
후세
낙선
1953
기획사
이소
한단
현행법
기이
토벌
tvN
##루엔
로드맵
개업
##아시아
살아왔
수건
분향
카테고리
세법
제때
카터
동맹국
동메달
재질
도정
비만
##펙트
단결
항생
해본
아연
옥션
파탄
물러서
전라남도
울렸
재촉
방지법
틀림없이
천명
워크아웃
투스
반대편
땅콩
따를
혹독
메커
태조
강서구
대꾸
KE
##au
##우트
그쳐
줄어든다
우라늄
반포
수억
보행자
급성장
##도리
감격
이희
빅뱅
청나라
소양
포진
교묘
실형
간행
##거진
최진
##갱이
##enc
143
안상
발표회
뇌졸중
버려진
에미
앞바다
번만
##방식
##쿠버
##line
처했
해내
##갑니다
거니와
데이비스
관용
식수
동남아시아
보성
여겨진다
경정
##니지
신분증
166
나우
코칭
여직
청담
초상화
York
##land
성대
극한
##트랙
드려요
##iam
소수자
SO
##덱스
베개
서북
임대차
머지
잔잔
냉면
보잉
수배
University
감세
봐라
위촉
아이오
손익
파고들
메우
영산
환하
행정관
인디언
출품
AK
하남
##사전
타일
귀하
개신교
구직자
김효
대덕
연립
어젯
다친
기관지
해져서
와도
##우마
##로이
134
기만
김홍
다가온
씨티
이질
##산성
끌려가
장외
나사
142
어젯밤
크롬
올인
블레이드
##자와
닛산
제스
성금
구운
향토
조사의
갈아입
버림
마운
##ress
명실
의병
트러블
경상남도
웍스
원년
핸들
지부장
복숭아
문화재청
le
계발
re
낙후
돌고래
부호
광저우
면치
바삭
수조
장전
메커니즘
추월
##레마
두세
신촌
진수
산책로
암컷
어쩌다
달라붙
이세돌
막지
사무국
입상
살린
##aul
전해진다
탐욕
과학부
위기감
경복
갇힌
아닌가요
문과
변혁
정운
폭동
기승
컨설턴트
오다
회귀
콩나물
스콧
표류
가로수
##TN
##ma
훈의
버텨
압류
업무상
퍼졌
후면
##VE
하리
누비
##어냈
건너가
거머
소관
인척
무실점
따라잡
다진
남대
도깨비
웅장
쓰러진
지팡이
내심
뽐내
원두
자본금
유리창
사다리
고른
Gre
나물
중산층
뒤흔
147
맞출
내과
섬기
한없이
##나갔
여보
르노삼성
속여
아슬
분도
##께끼
제물
평창동
##터스
건넨
집사
산수
액티브
수수께끼
550
파병
##기술
동월
blog
트루
터보
줘요
박세
젊음
##전기
KD
삼성증권
강령
넘어지
질적
개도
토목
관절염
서울역
구석구석
초음
TPP
말미암
종신
And
라이온
닥치
##소스
노키아
화분
막론
컨퍼런스
등교
열세
지오
김도
크레인
상어
가파른
수천만
볼까요
스텝
##코스
맞은
수축
청바지
줄게
##서도
사춘
재물
해금
##데스크
자서
결핵
연석
멈췄
su
##폭풍
USB
망원경
##가짐
려다가
141
이승엽
앨리스
원더
김남
지치
장대
크리스토
슬리
##aph
음악가
뻔하
공사비
아팠
나토
식욕
리틀
게이지
수순
이규
부쩍
공언
창조적
봉건
아지
오신
##ius
겨루
도스
질량
필살
카니
습의
##세우
맞춰서
건국대
미모
##구정
남중국해
데모
장차
테라스
전화기
달서
거느리
샌더스
피치
##상가
케이블카
케인
마가
##스레
동급
말없이
비위
체크카드
옮길
무신
선거인
색감
울진
김은
감이
굴복
달력
삭스
맞은편
대출금
집행부
1955
어찌나
##버렸
약식
TK
심어
아틀
##out
정세균
마음속
김제
스탈린
영종
장모
사계
수하
쳐다
##에다
직종
개연
구명
대미
바오
일렉
그립
꼴찌
우두
악당
짓밟
전함
##속기
파일럿
허니
가했
서거
맡겼
삼척
줄기세포
송영
그리움
퍼즐
찬물
독수리
유착
태생
알아볼
채권자
원한다면
수도원
밀어붙이
스모
ECB
실책
사상자
지와
씨름
표가
161
다다
미들
장신
##태평
가전제품
가늘
구애
테크놀
생식
##상의
제네시스
고갈
의리
부츠
주선
##own
이통
안전사고
NA
선구
##rat
여단
랄까
부검
2022
반정부
650
건만
바랐
##사랑
전가
이니
##현동
난사
기보
아날로그
만물
매기
무명
박동
사고방식
World
호출
때렸
에디션
리라는
OP
NASA
평이
혼다
동호회
송환
la
Rob
파열
형국
발광
처사
만회
앤디
군청
모공
실과
열렬
##Hz
##보라
앞당겨
요하
##워졌
검사장
산화
뉴스데스크
압구정
나타낸
될까요
박혀
소인
이드
굳건
오승
쫄깃
상황실
대명사
Gl
조선소
커머스
##ble
남경필
놔두
국익
첨예
졸업식
실렸
인신
애리조
동학
기술원
득표율
##세지
##ms
철새
두드러지
고추장
167
동명
프랭크
밀러
##날두
UHD
각본
쾌락
후드
인사말
키트
부담감
껴안
호날두
그제야
Or
소각
##들리
누군가의
멜로디
he
세리
자나
느슨
에로
워너
적기
##리그
복부
동그
매달리
본지
슬쩍
포획
명나라
순진
고루
머금
유배
거물
##ron
샤오미
##베이션
수익금
다닌다
선로
문양
1958
혹시나
램프
##로지
연사
그려져
환매
나트
##스케
빈틈
사슬
규율
동래
Comm
만능
밤중
##cl
간간
벽면
방산
평정
죄다
들린다
아토피
갈망
게나
사역
바티
민망
##블로
속보
LPGA
쌓았
예결
몸집
박살
예리
잠식
능이
생사
터질
몸값
이철
David
my
##MS
##더기
참여연대
소라
이오
고충
부류
체인지
그지
교제
정대
지하수
교량
논하
기강
당위
##루엔자
CES
필기
과대
로버
무당
퍼레이드
캡슐
김석
##ald
흘러나오
히데
기병
레닌
##agram
재량
IPTV
어우러져
GE
치닫
게으
##리학
어우러진
죄수
외롭
사악
피아니스트
Gr
지폐
리메이크
##lex
숟가락
박영선
심했
다가올
살펴본
자도
대니
허나
재기
직급
해산물
교구
식초
통학
자초
오죽
몰아넣
야쿠
전폭
해물
동선
패소
함선
FBI
##ound
Car
누렸
증식
킬러
샤를
조인
인플루엔자
비료
피카
횡포
유라
높인
유린
절충
채무자
체면
번이
승패
131
진다는
1910
파트너십
맥도날드
친하
아쉬웠
춘추
성과급
양지
##부림
##iew
가뜩
마쓰
부산대
dis
배양
##쿠르
얘길
접점
174
콜라보
내국
지미
화답
거주지
데려다
대승
문어
연구실
들어온다
en
낮췄
참된
담담
망고
##LA
경제학자
루마
##사실
us
전광
1947
잔여
안토니
조사단
이면
익산
주립
내적
걸러
사교
판로
##통화
진공
덩달
인권위
1956
돌릴
줄리
##ham
쓸데없
간략
토토
아이러니
He
복당
심경
이효
평년
##제이
고흥
들려오
플루
DVD
듀오
##내려
가뜩이나
천정배
스팀
##징계
고뇌
은신
민노
나경원
재연
뒤섞
연하
인파
후폭풍
##듭니다
떠난다
나아지
##ations
직격탄
정오
사령탑
줄거리
까다롭
도적
레이싱
리츠
외계인
카피
반가운
스테이트
수뇌
연면적
현저히
두터
탄약
이용이
음력
차용
페미니즘
##우치
##봐도
청도
다이빙
들였
근심
영양소
서강대
석면
따내
불분
해남
추출물
채찍
##도전
정예
벼랑
빛깔
회사원
음료수
위스키
아껴
영조
도리어
SE
영유권
수화
품위
##olor
괴롭힘
지어
릴레이
영위
이터
편히
자연히
합창단
단련
알릴
모은다
연신
올라섰
갑작스런
모스
ㆍ미
1954
경질
건너편
성적표
감량
별장
거처
척결
결사
ABC
당직자
정동영
무가
##게이션
##키스
취임식
Intern
연달
박힌
수성구
변인
##젠테이션
어조
##브스
유영
내비게이션
NE
안희정
파멸
브이
원어
총파
참패
폭설
착오
잇단
여수시
서경
경제력
전보
정거
헷갈
##시즘
강남역
해수부
##에른
기쁜
칭호
##다르
이종걸
불분명
##코인
뷔페
자책점
아모레
부녀
튜브
골짜기
독보
##meric
아로
일품
진하
이공
##실히
돌아와서
얽힌
아쿠아
플라워
염의
켈리
몰라서
붙잡혔
노려보
##두천
##츠키
소름
이가
수돗
이노베이션
무작
넘길
민관
언뜻
청동
폐해
전투력
언행
외교통
괴로워
체전
##공화
카나
선천
장원
무이
빌린
분기점
엔트리
연락처
쫓기
능선
출격
##ther
효용
벙커
스마
선상
무한도전
거장
울릉도
는군요
남극
퇴사
제작비
로펌
에센스
청과
##폐합
##모직
노회
수니
맞섰
유학생
##con
연장선
여운
##저지
폐하
##바퀴
고영
연전
갑상
교포
가까스로
리즈
사업단
기묘
미역
손발
내려다
입주민
##red
두근
프랑스어
기준치
정몽준
맞선
##oto
올바르
분출
안무
평온
ㆍ정
보일러
내줬
합병증
점퍼
재판장
항생제
백혈
카디
지켜본
학자금
##eng
##시계
제일모직
볶음밥
매혹
##테리아
능숙
카자흐
뭉쳐
놨다
외침
무도
무지개
고공
국제기구
놓이
알렉산드
양도세
팔꿈치
재일
1959
재검토
진위
조르
합친
##선거
강판
암기
야지
##igh
밀수
택한
일류
난무
Res
지저
카스트
확연히
소개서
투표율
사체
장동
카다
비시
소대
주워
블랙홀
꾸리
유우
##ole
제네바
총파업
틀렸
복면
풍미
난관
막막
어땠
아유
손꼽히
끼어들
척하
폐허
부인과
니즈
호두
적중
풀기
##게이
참신
173
의결권
남과
##마루
갑작스럽
부딪치
미네랄
에반
사용료
항아리
마이너
동백
비트코인
롤러
##플러
생겨난
구치
줄인
그랬던
피드백
##ames
끝낸
검색어
학창
에버랜드
조력
첩보
섀도
1919
em
근래
단군
가상현실
피츠
##na
위크
org
준다면
ㆍ군
노점
영덕
이단
##둘기
득의
##app
박사의
유람
법무법인
어처
유년
이바지
올라서
도산
분권
##ery
동과
시군
영예
출사
증축
경향신문
포르노
요의
크라이
브랜
캡틴
Pol
랜드마크
##웃음
불릴
시애
자회
충만
국화
발현
앙상
가르쳤
바이에른
환전
수작
경청
터전
소용이
성수기
이선
교란
##백화점
169
학비
daily
통폐합
려니
멈춘
천막
담그
충원
둬야
검찰청
족발
스트라이크
운하
조교
역부
동유럽
반동
화물차
드래프트
강박
극동
man
미비
빗물
디오
상세히
Comp
어드
라벨
예시
표상
웨이브
프란치
##모스
선가
등반
선봉
단면
유시
저성장
##뿌리
위계
De
불기
트라우마
극장판
인허가
유례
1700
이어폰
동두천
YTN
좌측
지킨
우여
##리히
트레이너
국교
드나들
이회
쪽지
신민
All
어처구니
말레이
후쿠오카
가져와
##시험
정태
사뭇
스카우트
꺼지
수저
PF
격인
매너
배워야
날인
수심
대남
뉴저지
진격
답사
윤성
스케치
플라자
유니버
리온
어부
조아
메이지
정석
##십니까
GP
경상도
석상
트라이
캐피탈
그랑프리
동맥
앤드류
울주
이장
##혁명
KS
당직
번복
신명
금산
생수
171
할게요
흑백
고졸
##곡절
판명
꿰뚫
CIA
정종
눈부신
티아
##we
서영
완수
최성
블로거
사춘기
누군지
WHO
신대
업로드
##돼지
SOC
누출
혼동
##ise
##ene
진과
집무실
처참
평형
##영장
입장료
https
어워드
판소리
##부패
예감
받들
양재
이혜
건드
여고생
##자드
견과
나인
닭고기
보령
마왕
연례
장어
투사
##더미
오세훈
차근
##eter
쓰러졌
천체
현충
미적
따라오
출입구
출고가
낙지
수용자
그놈
화끈
##관리본부
##모어
흐트
찰리
카네
개년
전동차
벌금형
무작위
어뢰
##태평양
노컷
빈민
싸늘
노컷뉴스
열등
자급
평행
슈즈
벗어났
크리스탈
부제
두르
상국
재외
우여곡절
단언
사토
블라디미르
에세이
짜릿
편곡
##무시
구태
담아
배타
늦춰
어지간
정거장
엔젤
궁궐
위례
본국
보디
포터
핑장
써도
보유자
시애틀
레이디
비빔밥
어설
오클
우버
인스
좁히
누드
무술
열중
집약
요기
내뿜
상도
손녀
초당
크라운
포식
떠올렸
고마운
잔소리
운전기사
보안법
로션
플라톤
농작
헤라
바라볼
비벼
##러그
유산균
수돗물
개각
농경
현대그룹
기념품
숙청
몰라요
유역
##생명
##탱크
진에
##일치
건데요
여간
##ital
아울렛
##통화기금
무궁화
##사르
어지럽
전병
상위권
찍힌
풍토
엄격히
손색
지킴
갖춰야
외야
타르
204
는지라
선대위
진나라
대전의
완만
##모비스
380
왕세
점쳐
한데다
빠짐
##협상
게이츠
수개
리바운드
화순
1957
라오스
##바바
바흐
도도
오븐
훈훈
허허
주기도
판매점
질책
국제통화기금
##ose
열지
개동
북유럽
질병관리본부
둥글
래퍼
##보증
슬라
조합장
속상
NYT
상수도
조폭
부럽
##포츠
잡음
메릴
청양
스트레
당겨
함락
NO
부정부패
##대사
현대모비스
선언문
애틀
연희
간결
게르
하부
기록물
UE
악성
채운
게리
방조
양승
##방향
몰아주
참배
강풍
야경
캐슬
테두리
실무자
합참
최저치
절친
벌떡
ML
상쾌
실마리
곰팡이
##치아
##민주당
갈릴
낱말
문정
패딩
알아듣
후원자
로또
집결
입성
철원
우즈베
콘스탄
급속도
넥타이
삼국지
##레스트
연수원
마니
##공원
일부분
에이즈
뒤따라
모빌
결속
의향
제프
감소세
지구촌
Me
과외
수류
옷차림
##하니
보험의
Su
수유
생겨서
흉터
##무사
최전
OST
마츠
결렬
일삼
의례
용산구
추행
후생
느껴질
탄수
프로토
주거지
감은
##IM
발기
이체
지지부진
백두산
소치
##해튼
마일리
WTO
Be
##오드
병장
##ael
까스
느려
리라고
트랩
판결문
돌발
중수
납세자
혜성
인피
왕따
입힌
상법
홀리
교섭단체
그렇게
의성
장중
주원
##김치
히어로즈
홈경기
술잔
시외
까마귀
##브로
볼리
실기
집요
버려야
##RS
흔들림
무시무시
대내외
동대
헌정
프린트
관상
회의장
페이퍼
서가
끼친
돌린
리프트
자락
포탄
제소
화성시
소비세
##ution
맨해튼
하야
콜린
전반기
케이트
묵직
성가
노령
허점
소령
리안
한약
박쥐
엄두
콤플렉스
스튜어트
휴지
성수
러스
보온
##사상
로울
박희
두통
서슴
일식
들어선다
Bar
맡긴
작별
출입문
수도권
지방분
번번
왓슨
##드라마
무적
라곤
우러
잠복
고령자
앞세운
거룩
뚱뚱
어려우
놓쳤
니시
녹여
나루
아레나
커녕
적재
필두
##enter
베토
이청
1952
정할
매화
연꽃
선지
##료품
서랍
##조림
플래그
편해
쿠르드
##예금
연석회의
기껏
떠안
실수요
##부인과
게임즈
블루투스
몸살
##마킹
##자키
웨일즈
취항
엘리엇
기울여야
입혀
des
계약금
Fran
청소기
벤치마킹
##런치
##itle
##수지
박명
산부인과
얽혀
트릭
요미우리
ㆍ이
Korea
결별
고층
##ream
목표치
분만
취업률
세습
송치
설계사
##거슨
세정
##춧가루
지으
군림
제비
굴리
양동
초빙
리카
세안
육류
폐암
끝냈
도교
피라미
매칭
일컬
펜스
봉기
헌터
모터스
화소
접경
##그마
내려졌
LIG
뛰쳐
형량
거래법
단통
끄덕이
중얼거렸
For
카리
조선인
레바논
저러
하이라이트
노비
참고인
책자
퍼거슨
##amb
스케일
요격
무례
코리
현물
##sk
Soc
스커트
견학
현저
##크라테스
쓰일
틀어
##렐라
완결
##영수
진료비
계엄
여하
특공
양형
미아
##테이
비켜
주택가
부시장
리비
브레인
윤기
마음가짐
동독
알몸
기간제
멀티미디어
악역
크리에
새로이
채웠
맡길
수출액
각서
격화
경전철
서신
중앙당
요런
비둘기
극찬
스타크래프트
오오
고등어
비장
파나
페인
힘차
##다오
모여들
베란다
곱창
청년층
##니티
선한
얼핏
##국장
소드
KDI
황소
브뤼
으라는
분향소
수서
##니당
상황도
애틀랜
IOC
금성
걸치
##델피아
수교
양적
써먹
BG
다져
야만
의기
휴스턴
노조원
브라우저
민병
박민
마흔
라고도
폐렴
알고
뒤처
필라델피아
공교육
내구
블랙박스
아랑곳
계약자
Sm
et
도봉
##그릇
공손
봉화
시니어
불쑥
##푸스
##uss
이태원
라라
발열
TE
##ler
치료비
간염
난항
면회
테레
길목
리베이트
파출소
공매도
법대
영사
##rans
제명
함경
갔었
윤종
조희
NGO
남동생
##득이
##ane
##oss
파우더
귀속
스트로
해부
목장
##피어
En
쓰다듬
팬티
국내산
##라이더
4500
말끔
빵집
참지
전업
주점
예비군
라미
들어도
낙마
수양
마도
일용
##지엄
225
조제
평준
한림
화기
Re
공해
니아
라떼
##gh
전통문화
CI
유골
KAIST
Go
PGA
##ii
담당관
강민
끼쳤
분유
산다는
베토벤
Har
시크릿
한명
케이티
심포지엄
수족
##유키
콩쿠르
뱃속
병과
kbs
##카이도
제과
진다고
OK
##ings
##텐도
옥시
미카
##을거리
멘토링
총사
FO
##CO
폭발물
닌텐도
재협상
교외
사이언스
고선
습도
황우여
미끼
강추
신경전
반쪽
궁의
태연
김현정
##장치
수력
##차기
한결같이
통용
흐리
광해
칼국수
par
공은
어딜
호스트
학파
1944
스트리밍
요지
모비스
##아티아
기억력
카즈
##추세
프란치스코
남원
성화
세세
퍼스
편도
소용돌이
IBK
제반
퍼트
발랄
샌디
획일
Americ
휴대용
달려갔
심상정
가액
계집
라파
울프
콘퍼런스
크로아티아
간지
샤프
휴먼
변할
적격
net
선회
억류
성문
큰소리
수류탄
##구름
오디
경치
매춘
##ca
루나
우와
최대치
고군
말린
백과
상경
##퓰리즘
루마니아
사이다
립스틱
회부
탤런트
포퓰리즘
##분투
테크놀로지
박주영
##AP
설날
청결
인터페이스
비축
##누르
ha
und
강압
근력
휴무
##타로
지망
투성이
웃도
허리케인
미키
모모
버틸
헤비
밀크
선적
겸비
내란
사부
##틀리
상여금
참담
독재자
대파
사투리
##위성
병상
자판
산모
아폴
발작
피해야
퇴행
태어날
레미
뒷모습
저것
##맞춤
##폭탄
쓰리
숙의
돼도
교향곡
강과
송구
자연환경
이래서
자카
동성애자
섭외
##ourn
성품
체육회
해상도
시네마
네임
탄원
낙엽
간병
골격
생김
고속도
참기름
초중
다고요
갑작스러운
무림
장에
서약
전쟁터
이라도
폐막
주중
##레이크
CPU
곁들여
##que
가져갔
장세
이해찬
성악
토착
자서전
지낼
원유철
단번에
양현
리코
이문
그로
계획안
숱한
##차근
정인
신격
한판
차근차근
출소
할애
하여튼
발암
자로
보여서
##만큼
##추세츠
파파
으셔
깜빡
##erson
유망주
정돈
금년
받침
펀딩
복식
후보지
텐데요
무자비
기형
프레드
서독
엘지
폭언
##악단
매사추세츠
솟아
들인
출입국
BO
GPS
##CI
교통안전
대응책
김신
포스코건설
모친
자만
배당금
맹의
액자
인다
불륜
행안
중공
섭섭
##관리위원회
영남대
권오
놓친
동자
스핀
하네
모세
포대
개점
길가
판촉
팔린
안타까움
공상
신시
고단
잉크
급부상
진척
깃털
LP
리기
역세권
입장권
느긋
제너
희소
페르시아
국민당
cc
##바르
현대제철
스위트
래요
편익
코프
구강
##리시
아리아
##회계
울림
##티노
선거관리위원회
잊어버리
On
SH
실속
특가
##꼬리
가인
백업
##ersion
소말
장타
##랑카
##지방
절묘
됩니까
입가
조가
불발
펼쳐졌
1939
교인
타개
##어링
공석
로얄
김보
남발
수군
퓨전
만장일치
We
독소
들썩
이근
보인다는
항공편
때론
싸운
즐비
##제국
윤회
페달
##AT
향유
꽃잎
##미야
굵직
김규
알고리즘
뜬금
출루
초음파
특조
역부족
모차
물갈이
은유
이륙
힘써
극소
##노동
마십시오
new
관세청
나뭇가지
절개
놀리
과반수
반역
Co
단조
영농
나트륨
##취업
하하하
살상
알리바바
받쳐
함성
##기념
##터카
아머
혈세
##밴드
의총
녹지
1941
##에미
시피
안식
티스
캐피털
황후
술자리
슬슬
ㆍ사
대군
방망이
패시브
all
오메가
녹취
헬멧
CT
통통
다가와
구토
렌터카
애착
땅값
무진
산적
독일어
따스
탐정
1951
##rit
박찬호
##레일리아
PO
ac
끼칠
실수요자
블레
만류
매경
일출
모을
범하
초인
##라마
370
MBA
단합
부름
한적
증원
행각
내려진
하산
전립
##메라
표지판
힘겹
부양책
##공화국
각료
릴리
문은
##떨어진
해군기지
블랙리스트
브렌
귀띔
천도
나돌
포도주
버핏
##송이
석부
친선
창피
송전탑
SDI
단발
야단
날카롭
메뉴판
재조
필지
해병
선후
앞날
달아났
저널리즘
온건
눌렀
업고
왕후
자갈
퍼블
자치단
##uck
단거리
시끄럽
##atch
##ts
딜레마
제천
희박
홍문
##용수
돌출
만년
뜬다
박자
ISA
미로
경화
끝난다
CM
몸부림
얽매
슬롯
프론
##정보
가정용
달여
밀라노
탄성
근사
자이언츠
빠져들
한민
궁합
##de
그래서인지
으뜸
찬란
뒤편
부러워
가할
고마움
세르비아
기득권
Ind
프롤
전세가
어시스트
도화
법사
질수록
비무장
경쾌
랑의
울산시
유적지
##생긴
검역
홈즈
안타까워
꾸민
천연가스
##ero
소닉
낮출
사업체
팬덤
##린다고
이재오
##히로
코믹스
title
엿보
다퉈
##서니
하급
##ford
낭독
내로
라이스
거래처
단종
##진다는
부지런히
##evel
이따금
밤낮
##강도
전자책
경험치
한탄
석유공사
대청
##든가
##oph
권위주의
데드
전량
##모리
절하
##배기
우루과이
김소
스완
혼선
무릅
##ject
수임
따라야
항변
멜론
히로시마
팔찌
놓아
루가
심재
정모
외주
##저가
돌이켜
경복궁
국문
CGV
시베리아
that
꼬치
로리
##익스
아이파크
##미아
##하우스
전임자
무스
수아
평화통일
들렀
##냅니다
밀린
유니크
다산
##92
느라고
박대
연주회
##마당
휴가철
스테인
내무
양사
발각
하이드
몸싸움
재위
##ict
연필
실례
놓였
체불
브릿
##불이
850
하루빨리
드러낸다
인승
착안
타파
시오
밀어내
한바탕
아리스토
장흥
메밀
선입
##les
##케미
간사인
국은
본드
스며들
der
계량
월경
야근
특산물
독거
심부름
박현
노태우
카자흐스탄
##ount
책무
##만금
##oe
캐논
화나
신변
격추
창시
##산동
느닷
장애인
뛰어든
필살기
태운
통행료
##데시
행자
##소송
##초리
새의
돌아간다
##ors
복싱
농심
활동비
불능
폭격기
한기
문화원
탁구
서태
##ony
안드레
RPG
생태계
왔으나
##alk
역행
등대
비밀리에
숙여
시모
창녕
군부대
유자
불린
우습
##잖아요
JP
인민공화국
출세
제각각
up
빌보드
장년층
속담
진급
정병
카우
KG
당파
##글라
mg
가다듬
마카오
##식물
단맛
세계인
기행
증발
칵테일
인민군
루크
선주
빈약
NHN
no
머스
접견
꺼려
디렉터
Ge
##바리
걸까요
##ana
가까웠
피워
원상
드셔
종래
네이처
031
맹활
순교
조건부
ag
어택
베가
처절
명부
배설
##지우
DTI
##now
변비
초원
광학
차남
숙종
마일리지
My
망각
체리
전학
퀄컴
물러난
부르주
맹활약
뻔뻔
왔었
리튬
박승
위엄
헤쳐
프로그래밍
역내
##NC
하이트
행과
##천리
굽히
서진
귀여워
과부
갤러
홍명
검장
오스트레일리아
영월
어쩐지
우즈베키스탄
단수
바구니
안상수
로컬
외지
위인
패전
##워즈
찾아다니
qu
경남기업
국방위원회
역이
폼페이
정치학
피라미드
생후
##에미리트
바겐
농작물
였으니
아인슈타인
조광
세워야
모차르트
치른다
부끄러워
인대
체형
포석
증여세
차인
겸임
중저가
아랍에미리트
##러미
##레인지
연기력
고착
##RT
##아보
안산시
노랑
기정
박선
##라드
유고
2021
레고
탄수화물
우르
##US
##MP
넘어설
스터디
고귀
##sc
골드만
성황
중첩
바라본
##은희
감청
반등
##아치
지주사
이루어져야
비키니
촘촘
코스타
몰이
소유주
프랑스와
국공립
관영
바쳐
터득
##15
팔자
서클
340
금은
마야
내시경
압둘
테슬라
트래픽
나들이
외로운
경멸
카시
옵티
유부
역도
복리
하비
연예계
카탈
분장
예정자
광진
딱지
새만금
미식
둘러싸여
명실상부
온화
설립자
1936
머뭇
회기
궁중
일몰
헌법재판
스탠리
뒤집어
스턴
##서울
청계천
ㅇㅇ
인먼
##남동
폐수
Se
##배추
##즈음
식기
중징계
가산점
##연구소
식료품
소화기
##ative
상추
수니파
송정
미투
모유
##상정
장보
흐른
UEFA
가가
치약
대작
1937
바란
골치
습기
##폐물
추진력
분경
일탈
캐서
##OL
초록색
카페인
##렁크
버금
방문자
빼앗기
넓이
경작
어묵
재회
재화
라운지
질소
시달렸
주정
충청남도
승선
재혼
으로선
수감자
채울
학술지
말레이시아
풀리지
오스만
군함
##십니다
조형물
걷어
나위
만루
맞먹
산뜻
이토록
글러
밝혀야
내준
선율
버크
트렁크
밑바닥
모의고사
##PGA
ne
괴리
봅시다
이남
개회
리차
혈통
들으면서
상체
선택지
##매기
중전
총동원
먹을거리
야수
혼수
베스
돌아온다
장례식장
가히
급제
달릴
전문직
안치
게을
떨쳐
인계
유모차
리뉴
목욕탕
NBA
연한
##lect
슈퍼스타
Will
인준
보이콧
외할
낮잠
##IB
섹션
##쿠니
스톰
##먹이
장성택
##절기
010
캐치
##inc
상과
될수록
시판
##트로이트
수역
##웨이트
뜻대로
마요
밝혀내
##까봐
부설
신과
ap
관리인
삼키
터트
대표인
내려야
띄워
란스
김시
선량
잠든
미즈
디트로이트
네일
스노우
고군분투
원사
흔드
##호흡
맞닿
엔드
금발
요컨대
분석가
갈증
자명
소중히
작위
탱커
어수
적군
후예
##의식
시금
샤이
애틀랜타
##pic
현대사
여호
소비량
남해안
항산
BN
망신
조우
후미
##카이
용적
중후
쿠웨이트
##익스피어
La
각하
잡아내
수사대
창가
게릴라
정수기
Fl
셰익스피어
사조
결재
군복
##서야
인도적
논증
##코프
넷마
이우
전집
워즈
집들이
자지
뒤져
갑상선
잠금
연유
워드
cont
무주택
굴뚝
##파니
기념비
Christ
이동해
FR
스파이더
IR
힌두
승화
법치
광기
냉소
대등
일병
코앞
멘탈
##나리
##계약
넷마블
레이트
젓가락
초교
from
글리
스크랩
가옥
##ara
op
깡패
크레이
구본
이범
화약
청사진
장려금
카프
포커스
평가전
제약사
##berg
일터
외무성
로브
##ward
두리
열도
청라
##뚜기
보르
계실
상쇄
##아슬
중개사
전입
##노소
아슬아슬
싱어
알린
검의
얻어맞
김해시
서초동
묵인
##예프
극단주의
정호
부턴
##ini
억대
##돋움
반출
저승
War
사무관
발돋움
변제
애호가
오인
##ve
##urn
##25
##캐피
곤혹
로지
##대성
통신비
서늘
우기
사업주
근거리
저력
1942
##ange
역력
사쿠라
판세
205
청정기
물들
진보신
클라크
##hel
2025
김이
김양
꿈틀
머의
통찰력
황홀
방언
배관
사본
산란
요크
논산
##탄불
줄여야
펴낸
자아냈
신세계백화점
나눈
맛의
몸담
플리
##오른
비약
부적합
알려준다
고국
국부
지닌다
Dr
분별
산골
안젤
수줍
오줌
##천동
##캐피탈
시라
학장
내분
떨어져서
떡밥
방관
배척
가슴살
엎드려
멈출
후속작
명당
야망
휩싸였
이스탄불
조급
##래스카
나뭇잎
이지만
DD
지라
현기
강수량
레이드
성형외과
서식지
거행
##리스타
맴돌
헤엄
##edia
대타협
감염자
꽁꽁
##텔레스
부업
파가
떨어진다는
비워
아치
토머스
운동화
받아들인
서두
열거
##블랜드
장본
Par
누스
미술품
재취업
지배력
갈아타
스치
종영
배트맨
요괴
법률안
발가락
영암
최민
##통수
관공
대서
하자
천식
##form
경륜
빙하
##각서
##베르트
스트레칭
급수
액정
정기예금
클리블랜드
고든
앤더슨
##어티
칫솔
공사장
바랄
가와
달구
왕립
중개업
하버드대
변증
사극
비엔날레
재조명
##더니즘
사은
편중
블록체인
고산
무식
화백
한수진
지저분
낮춘
월남
이타
출토
전할
퍼붓
오르내리
에이전트
##14
항공모
난간
대용량
위아
금수
취해야
밴쿠버
CB
네스
완치
재주
남녀노소
프레이
어울릴
양해각서
당헌
상술
영등포구
채식
컴퓨팅
브뤼셀
##재료
아리스토텔레스
스케이트
담양
야후
##fer
매료
서유럽
팍팍
가창
니혼
박테리아
김범
막아내
미화
체가
풀린
상소
오월
슈퍼맨
손짓
##벼락
천둥
거트
끝장
##타기
프레젠테이션
일관된
조미
일본식
새겨져
강대국
법리
##ience
계장
순의
##체육
테이크
청송
질식
이토
한다거나
##ye
부피
완도
구치소
지양
품안
해와
학생회
1938
##찰청
잇따른
부딪혀
찾아간
IPO
유병언
격돌
##19
세척
옆구리
인내심
NPC
부조리
##사항
재미없
전멸
구마
반공
일격
프로이트
두들겨
##문고
##자치부
수협
##ext
덕목
##ke
드러날
힘껏
Am
갈지
전법
##저럭
안전망
선우
참관
##fl
행정자치부
숙지
##교사
빼앗긴
불거졌
이월
테르
판시
##타나
갈대
##우병
##럭저럭
두려운
포근
International
##필품
성장기
##자치단체
봄날
per
투표소
나지
행세
학군
##깁니다
보여야
플레이스
지그
넥서스
발톱
대검찰청
NHK
프라이머리
기발
더비
중용
중생
베이컨
던질
생필품
김성태
ㆍ일
고창
커트
라고요
광선
기공
지점장
##케미칼
부식
석가
도사
방법론
레어
방심
선풍기
감염병
금정
##화가
명작
밑돌
틈틈
스릴러
가부장
모태
##보레
담아내
시들
알제리
##지수
여주인공
암튼
관전
뒤바
무비
HS
해했
##ren
바깥쪽
빈소
멜라
변조
##심장
안양시
탄식
##랑드
세차
편차
##영화
만전
피격
현대증권
지디
Mark
지켜볼
version
테스
한입
곡식
다분
적임자
sm
승승
여대생
Qu
카오스
추워
한이
##ield
레이크
변기
으냐
무릅쓰
한문
수은
토해
저울
##마드
금천
로저
세비
임팩트
주술
선다
곡성
타마
##각형
고온
장정
다졌
심이
징벌
노을
이한구
이방인
두툼
오름세
나간다는
KDB
방중
무너뜨리
김경수
산길
그린벨트
유태인
자석
##밸리
격퇴
누수
직거래
국립대
문성
후일
##중독
판매자
성토
읍니다
껍데기
돌기
민첩
브룩
유목
경계선
두각
몰아내
ㆍ고
본보
뽑혔
일으킨다
CR
콘솔
안도
애교
어두워
개로
라틴어
십상
클라이
뒤통수
졌어요
석이
아득
대전시
마피아
보루
장내
개포
##레이트
옮겨졌
냉방
떠넘기
플러그
그리드
멧돼지
밀어붙
아메리카노
데카
오비
구축함
유격수
또렷
필더
키리
1943
리차드
수긍
위자
안장
##선스
현대캐피탈
##세스
##드레
테리
##ium
저게
SL
위암
이베이
물씬
소말리아
##글라데시
##메르
히말라
##푸드
XX
안테
내딛
강소
날씬
번번이
레즈
제리
무의미
연세
특목
경도
극명
##마침
역삼
스파크
무마
원재료
직행
480
뭘까
시차
##푸르트
사고력
관사
양궁
무인기
사교육비
수뇌부
잡아당
이학
때마침
정신없이
귀결
노바
창건
방글라데시
포탈
##캐슬
들릴
##raph
애프
회의록
##ublic
부릅
재치
로그인
ㆍ도
시아파
뒤돌
파묻
218
빠진다
친의
헤겔
##습관
##지먼트
매니지먼트
움직인다
서청
옷장
예식
백혈병
맹렬
Col
백종
부조
환한
소송법
##조각
출두
##바나
트로이
예절
바티칸
캐머
시험장
소급
신빙
히말라야
##착륙
망상
생동
오스카
IN
유타
티저
롯데호텔
저변
##네임
된다며
영업시간
아닐까요
방류
윤영
해본다
##────────
사계절
남대문
용접
장판
순종
지름길
쉽사리
아낌
고이
그럭저럭
뉴캐슬
막혔
미륵
전립선
WW
애용
주어졌
넘어간
약이
빙의
포구
수영복
클레이
##란도
##착오
도전장
모독
회유
산사태
선방
책장
##업소
뽑아내
하이퍼
자라나
사이먼
돌봐
전류
즉흥
통풍
김기춘
밧줄
비에
기념행사
아즈
시행착오
스키장
헤어진
##공항공사
고금리
네모
경협
묘역
불순
직시
둘러싸인
안착
중심부
동갑
레버
정용
##AN
##아르
헌혈
계양
근린
물감
문희
톰슨
라이선스
나이다
쇼트트랙
산후
##민턴
안간
미덕
아반
아수
어벤
그림책
병영
앤젤
조윤
케익
##부리
안간힘
문책
not
우발
입출
차관보
봄철
했어야
과하
서머
악마의
스팸
식습관
##애미
성역
고을
구민
김호
캐스트
웨인
이랬
##이스터
청자
##뱅이
car
미일
방공
봉합
배역
트롤
##ouse
보위
갈까
빌드
유이
##45
콤비
찾아냈
마이애미
오하
##erg
허덕
바래
공전
##aj
##가정
권력자
정승
독신
위시
공성
블럭
휴양지
무침
체격
옆집
##소니
지킴이
입김
##곡히
1933
캐서린
EV
걸작
단체전
신사업
머지않
흐뭇
변국
양배추
승승장구
기술인
다네
장본인
원리금
장영
가파르
숙원
자아내
청취자
수식어
##우주
강신
국을
##예산
거구
도용
빈티지
태화
##카쿠
놀라움
가져옴
깔린
외투
짜여
의과
춘향
펼쳐져
개화
슬라이드
종교인
말문
미백
##나카
필립스
산호
일수
힘내
##플릭스
##75
##꺼풀
일회용
묘하
피디
기약
남방
넷플릭스
직계
한데요
빙수
떠오른다
대추
모레
몰수
악어
지크
##위대
밀렸
##uro
희곡
검문
단층
1932
닌자
##16
##주곡
노회찬
원론
청주시
독단
소자
자칭
왕래
쓰레기통
마하
오미
##stagram
해밀
할로
잠잠
용감한
사려
국제선
내려갈
한정판
강습
외벽
구세
##yl
중랑
황토
독일군
놓칠
숨겨져
부득이
산문
마칠
간파
실화
##13
전라북도
응징
소실
사회생활
크리스토퍼
컷오프
강탈
아바타
거린다
고학
만행
일례
견본
도배
두껍
했으므로
인덱스
독이
접어든
네이트
줘도
힘드
소크라테스
사병
선반
최승
어촌
특약
과소
해태
##맹이
발사체
전환점
고춧가루
땅볼
자긍
사재
산전
살폈
직감
시찰
이회창
쿨타임
금지법
구미시
do
##니카
끝내기
제철소
강동구
##코니
##처리
대표작
자위권
고취
상하이
선거인단
##17
##돌프
##보리
사용법
원문
함축
임창
int
꺼져
##ichael
케이드
##88
심폐
도르
해골
##제표
문화예술
멋대로
##코지
##시안
##der
솔로몬
울주군
##크로
##메드
누워서
용암
부지사
왕궁
##폴트
피부과
제이슨
결전
론가
물어야
외교통상부
잠입
정열
기념사업
배드민턴
투약
##장이
##슐린
갖출
잇몸
##ata
끼니
출항
##정지
하수인
지울
헌의
##lin
##du
완벽히
##효과
멍하니
중앙일보
찍혀
컬럼
친일파
흘린
재무제표
출근길
재가동
고야
파랑
식중독
엄연히
형광
홋카이도
권했
까치
확고히
##ournal
캐머런
내사
정상급
1914
부총장
비화
프랑크푸르트
울부
정명
타구
내려서
사옵니다
동일시
290
글래스
일절
##큐어
예언자
마중
##의사
소비재
중독자
막이
일사
임시회
##눈썹
Mc
이석기
명장
발신
벌어진다
심리학자
Im
삼성카드
가자
산동
물색
##사기
교민
ind
성탄
챙길
객석
다문화
막스
##해진
##ific
다구
아하
피신
했어도
노고
로저스
중소기업청
커피숍
까먹
이랜드
괴로움
손아
##구이
무이자
영정
칭송
프린팅
blu
##org
소도
인슐린
라임
보고회
gl
숙주
순대
중거리
한라산
풍습
모기지
빠짐없이
역풍
케미
게이머
sk
터무니없
포옹
we
어떤지
조그마
Rev
격상
설거지
##ization
주창
전시장
모성
##대원
안테나
들끓
BI
서예
숲길
정품
자위대
일진
##변이
호투
그지없
유창
유실
연명
개명
원할
이뻐
420
마리나
고위직
몬테
수석대표
이연
촉매
통관
페르난
만취
노동계
놀러
매립지
##텔링
1929
안중근
기탁
일전
이주민
It
떨치
스토리텔링
비친
소리치
소재지
자유민주
별거
##리우스
비행장
알파벳
유람선
울부짖
##크라이나
산업용
합법화
##22
##자실
예스
일어섰
렉스
애도
양분
빈곤층
다가갔
해왔
병동
작업장
다섯째
##글스
서청원
포유
요즈음
승부수
방점
##마차
루니
민요
바빴
트레일러
등락
모리스
포가
선택과
반열
속눈썹
수선
이력서
돌연변이
노련
오차
혁신안
적립금
거침없이
Cont
다인
여길
##에트
드롭
매장이
오더
##임새
다뤘
소량
실컷
정확도
튕겨
우크라이나
진성
광복절
##투자증권
포상금
위선
본다는
##ym
시바
현주
피서
YS
연습생
통진
뿌린
황급
##자루
자긍심
늘린
쫓겨나
방정식
벌기
축출
중령
어떤가
팰리스
평했
##지역
밀려나
글라스
면책
발해
기관총
끌어올렸
발라드
대당
중학
##메인
##임수
Fed
PV
유추
법조인
소공
res
담요
정파
보로
쐐기
열전
블루베리
데려오
금상
유유
지마
다릅니다
스칼
러쉬
##48
천시
눈가
열량
무효화
간다면
림프
##레븐
디바이스
##33
삼계
행한
##수단
기자재
자동화
통한다
그걸로
챕터
지도력
우선시
와이어
모국
계룡
무기한
식도
찹쌀
BP
민트
모하
낙원
보탬
서도
##혜진
페트
뜨거워
##프레스
##ondon
멤버십
미가
##orth
브래드
몽고
재상
One
##더니
보라색
라이너
차차
구심
월화
##레오
적시타
수개월
진솔
몽땅
포맷
밤하늘
움츠
준하
##유국
##eph
##리케
단국
돈다
시외버스
원합니다
초저
##따리
gre
철근
문화부
물티
섣불리
갈고
오시
김부겸
항공모함
브런치
일지라도
수프
연약
As
치러야
##ize
군정
피닉스
스페인어
총영
평평
니라
보따리
전범
주안
아반떼
센카쿠
스푼
노렸
유민
내리막
동무
변태
역습
자력
추도
대차
연골
정영
초석
comp
치지
구내
규의
캐리어
템플
평타
##사진
##MI
부가가치세
옵티머스
특목고
바가지
패트릭
박태환
끼얹
유스
창백
총각
학교장
Ag
한스
자그마
찾기
투병
##LE
물티슈
신데렐라
성리학
##35
새기
Ass
갖은
메스
인포
##교동
구약
미신
순항
기하학
시몬
영성
오리엔
조계종
매실
신봉
유소년
자바
주니
스프레이
사활
값싼
꾸짖
동질
애썼
##OT
대장암
##그머니
김태호
스나
아플
월성
##제당
수목원
플란트
드려야
방제
묻히
돌아다
미트
기사단
소풍
수칙
출연진
blue
궁리
병원장
벼락
##소년단
Paul
ec
짝퉁
엉터리
쳐들어
목돈
아보
남궁
##하르트
AFC
등용
확성기
오승환
은커녕
레이어
가져다주
풍광
홍천
##ener
위즈
출사표
nh
##권자
공급자
한명숙
알래스카
성실히
가를
남길
북아
자자
부산항
222
서야
건져
출가
유명세
##려면
공민
##게티
내야
도맡
화합물
대웅
매끈
면밀
제일제당
로이드
론스타
조선업
인공위성
다룬다
오대
미움
배반
쪼끔
5500
이정희
1905
갈치
로보
##께요
세종시
가릴
중과
루즈
불통
용수
판서
제스처
그르
파주시
싱크탱크
간선
브릿지
제독
패한
평민
백서
슬기
기자단
공정성
부유층
편집장
난동
한산
##능력
모델링
다원
WP
내놔
발화
험난
느닷없이
교시
풀렸
2400
매거진
백색
승낙
체벌
감춰
대감
날린
변한다
옹기
##던트
##ollow
마그네
##지마
맹목
모녀
SDS
낙서
쌀쌀
지아
고압
내공
##ichard
실효성
네거
경대
차렸
시사회
국력
급행
근까
##ility
회고록
폭도
도로는
##레타
나폴리
레슬링
역경
##echn
밸브
협찬
알카
세워졌
위약
가덕
뒤진
반달
하오
불명예
따돌리
구수
##하키
##틸리티
are
경시
흠뻑
넘나들
대림산업
방청
암울
투옥
##네이
경영인
윤창
컬링
매수세
아라비아
광우병
명료
왕족
프렌즈
체증
취록
고속버스
점주
직권상정
애견
조직력
유시민
##let
나와요
##conom
리트
긴밀히
두터운
유틸리티
황산
필로
가한
굳히
self
설명서
타이거즈
우방
나온다는
AG
험한
플래닛
브루스
위스
##몰이
의중
자태
도면
오니
경미
글귀
주간지
SI
볼일
내쫓
익힌
나타낼
##ision
한화그룹
##bps
월등히
감초
토사
긴박
찜질
미워하
래미안
고배
향해서
방탄소년단
더라구
보호막
신호탄
퇴각
힌트
##들레
##erm
김현수
경리
이형
##특위
무기고
군자
희망자
약초
함안
##aus
고점
어다
정박
참혹
날아오
정민
희석
강원랜드
날라
반증
장윤
기다림
##오피아
카를로스
야스쿠니
레딧
첫해
보안관
관저
프랑수아
올려야
두기
팽배
노가
순전히
도쿠
마키
주실
자상
알아주
실드
내용물
왕관
잡초
실리콘밸리
능률
다윈
sch
황실
네거티브
비오
보수당
송신
앤서니
토하
블루스
에티오피아
득실
정진석
불태
조동
##겨울
휴양림
유심히
MBN
보임
기괴
자폭
토모
펑크
아미노
평원
충전기
기린
로로
소심
안마
종용
국제법
알프스
야산
##장자
훈련장
##데르
테크닉
박병호
쇄도
Part
로크
##탄소
Robert
back
겁나
질감
가운
오정
정맥
##드래
대통령령
##net
##정책
외무부
카인
out
서요
마누라
박형
어여
무드
시노
물꼬
빨강
학설
국밥
토익
연료전지
제격
트림
하노이
허약
나고
사칭
설악산
전단지
##72
서핑
1935
빚어지
압승
정청
##보호
골랐
타진
골반
아이유
제단
편파
지나갈
고위험
빈자리
조식
허다
bp
수혈
우두머리
그나
물동
수문
리얼리즘
직선제
발단
셔터
역외
제후
달린다
##휴가
강정호
경차
난폭
먹히
영적
칭하
엄숙
일구
off
황급히
패자
회자
하강
조끼
혈중
밝힌다
208
고원
##ays
질리
저질러
분홍색
선형
폴라
##18
교육장
피로감
##my
스리랑카
신항
식과
##공격
마모
김성근
루피
1925
##any
##afe
배지
##래요
강의실
거머쥐
어수선
우왕
활자
##버시
걸어갔
정벌
거북이
고강도
핸드백
rd
왕과
불러서
시호
장제
포고
노폐물
가오
성패
외제
적나라
시초
야식
올려서
뱀파이어
베이지
따온
주치
으리라고
부치
진달
캔버스
고스트
액면
엑소
스카프
천안시
##ho
##95
끊기
히든
소비에트
당사국
하순
1918
이안
재학생
절규
##드로
민간단체
방증
곤경
소사
전문지
아야지
음란물
닷새
부려
약진
여실히
흐려
떠서
##호영
무모한
비석
mbc
걸프
하워드
어린애
다문화가정
난입
카마
칸트
호크
델타
소견
펼쳐질
순응
좌표
ATM
분쇄
슬램
이와
피에르
##린내
이정표
모란
여과
##을지도
Em
결투
동종
레스터
정신력
아이스하키
자화
중의원
사정관
인회
##슐리
사무장
심근
제품군
총체적
경은
만도
볼링
봄의
부끄러움
간디
기우
증거인
몰카
최형
다량
수세
황정
냠냠
봉의
샤넬
시화
영아
조나
만족감
중도금
실직
##트니
##행정
##날리
관청
안대
UP
##지구
되살리
군비
차액
으리라는
항체
프라이버시
other
##소타
##FF
ㆍ김
벨라
영진
디펜
시가지
처리장
##커피
##베이거스
분통
진구
마르코
7500
라스베이거스
깨물
서커스
실생활
숨통
형용
작업실
합니다만
##덕션
달성군
신천
부서지
수두
##ino
##운데이션
가로등
율법
해프
립식
파운데이션
어법
갈라지
버금가
추징금
##팽이
206
피니
정신병
이동국
310
평택시
뒤흔들
대치동
번호판
sv
포탑
취약점
##ute
사은품
신보
의전
펭귄
농수산물
배꼽
트인
블라우스
선구자
##실록
##링턴
경로당
고해
밀란
방도
는지요
style
카다피
공생
##꾸미
묶인
참모총장
센티미터
##이다
겸하
숭고
적색
끌어당
스펙트
1931
CH
졸음
##vent
감독관
떠올라
선후배
집안일
개항
영미
온다고
부가세
충청도
녹조
흐느
무용수
반향
치명타
미네소타
정쟁
관동
덕수
웃돈
패럴
허영
##cal
해이
허탈
흔들렸
발바닥
사비
##LO
신다고
교부금
서대문구
렉서스
축산물
페더
##ube
완강
##저곳
이곳저곳
지배자
형편없
틈틈이
디폴트
높여야
캐스터
힘겨운
익스프레스
초미
춘천시
제멋
겸직
좌초
중앙아시아
살렸
피임
잘난
##by
였음을
겨자
관음
##바키아
푸르지오
THE
호도
걸으면
댄다
도표
아만
SSM
##소시효
갑판
불우
산청
주황
선제골
El
공소시효
휘청
##바라기
떳떳
이르지
골수
##그림
파전
빠져나갔
발코니
IA
저우
들이대
노량
말년
서바이
##상승
해프닝
건재
테드
##ㅠㅠ
늘려야
악한
진부
침구
항공우주
슬퍼하
테오
효도
빠뜨리
MWC
축전
##난방
요코하마
기뻤
수갑
당규
백수
산간
##잔치
발짝
투영
##미트
자유민주주의
가왕
규약
붙여진
물방울
화신
살인범
북대
내던
불식
패션쇼
el
##IE
내려간
최태원
##먼드
전문대
투척
부르주아
식스
##라지
몰아치
통칭
##반찬
쟁취
주조
투하
미끄러지
##bo
##23
복역
풍수
호에
산만
카이로
부원장
결석
어로
기울일
경건
수학여행
1934
골문
이북
제안서
무얼
붙일
스펙트럼
별칭
친목
물려주
고어
정수장
2200
원세
연출가
게을리
관현
기틀
봉급
세브
이율
기성용
해장
받아들여야
리턴
##근무
꺾이
암석
##박질
이상일
id
거동
수기
호우
프레스센터
급성
하찮
리얼리티
520
리타
##람쥐
메이플
이걸로
추징
레인저
예사
후안
##일관
메드
살라
역주
인심
송출
후추
235
아파서
발맞
어려워졌
초심
고고학
##NE
흡연자
수신료
평의회
소시지
벌어져
뼈대
스텔스
윤상현
bar
전관
##주부
##르노
1926
##21
##벌리
북한산
지역주의
430
고삐
군용
널려
라야
백미
안구
저탄소
##으리
##be
식생활
##회전
##석희
신현
투덜
미츠
불러일으켰
양천구
RC
지구대
데로
##델라
고교생
구덩이
사명감
병우
윈드
Journal
징용
피살
##봉사
##드래곤
난처
##ese
무심코
MR
요직
후작
##iness
독과
무소
커맨
답안
선양
장지
경각
##ille
덤벼
##ck
갖춰져
경부고속도로
피츠버그
외압
##택시
날뛰
도안
떠도
숙였
간질
사들인
시적
레이건
차입금
조서
운전석
가래
##99
##블린
가브리
궁지
마티
찬바람
찰나
##푸르
손수건
구와
두목
이성계
Is
매끄럽
브러
그랜저
##크리
##에고
라는데
매트리스
송년
비호
롤링
두드러진
동동
접착
나고야
온다는
##십리
따라다니
드가
블라인
키움
##메스
되돌리
사생
전자파
##지휘
##킵니다
일깨워
뉴턴
차가
코바
1928
누명
통곡
##바구니
클립
의복
쏠쏠
##DS
##충제
##earch
FOMC
경진
대칭
덮개
레슨
##는지
줄여서
System
##골목
이마에
용선
수탁
상한선
실탄
버려서
코리안
데크
흔쾌
반란군
생김새
폴크스
256
발제
번성
아자
아이슬
비씨
수로
일면
픽업
##극장
CU
원통
은닉
출산율
때린
뚫린
우에
신관
열병
기해
모서리
##기능
요구사항
##게이트
##볶음
1924
중환
타오르
하체
보호구역
제멋대로
불멸
비선
전서
한들
##지물
리사
밸류
앙상블
스로
노원구
TS
말썽
이언
##학생회
아이슬란드
가신
##며시
일손
불면
구스
##드기
관망
가리켜
균등
##미애
물길
##광석
커브
통념
섬뜩
전권
토탈
어벤져
총학생회
##준호
벽지
사들였
폐의
후대
산업체
모피
예탁
침의
되돌아가
Gu
블러
총량
십자군
광안
##res
민경
지난날
올려다보
노숙인
NBC
국판
버젓
실루
제우스
쥬얼
1927
소나기
로웠
##obal
라트
베라
215
감내
성행
##라면
둔갑
썰매
현혹
##연료
공산주의자
스크롤
로다
우도
유혈
##가시
풀어내
유라시아
라니까
연습장
즐거웠
감액
바닐라
스탬
페스
무너질
KL
해밀턴
중이
##24
##지가
유재석
본보기
여름휴가
전유
풀릴
제시카
속임수
시식
1917
키를
##sy
빼돌린
끊겼
유토
에듀
왕가
제곱
자폐
해바라기
횟집
뒤쫓
러셀
향한다
##히드
KEB
##노버
pol
낙타
분말
폐사
강우
섀도우
개운
##누리
베이커리
James
London
타이완
윤석민
part
인부
흠집
명쾌
평지
예우
##혈증
덮여
자가용
214
달도
라디
히메
걸쳐서
기정사실
인단
티브
파나마
붕어
조승
덧붙이
신상품
애국심
북돋
몸소
수변
완구
##26
방재
오갔
##이상
한다든지
gr
갇히
욕조
닥친
대대로
석학
가져갈
막아
방미
암세포
파벌
피리
흐른다
산산
시황
일궈
##리사
##쓸이
담가
할려고
가압
부연
##둥절
방송법
어류
어리둥절
고증
토이
대소
새콤
시금치
페미니스트
알카에다
도성
최인
페니
산림청
빨려
정희
수혜자
DG
시추
퇴계
고용주
콜라겐
사회관
끈끈
흐를
가정폭력
두드러졌
스몰
정두
##시고
SPC
위자료
수난
연봉제
초미세
싹쓸이
##sch
보시
찾아낸
독립운동가
벨벳
top
시향
사무처
1907
로망
은수
장가
고파
정치국
fc
항우
일렉트로
슈가
##문화재
살살
##바위
##96
빠져서
Int
IF
렌트
벗기
고상
데님
사상가
사로잡혀
Love
하류
##과학
리빙
불가리아
김태균
쉐보레
여긴다
피켓
##타오
범람
여친
여지없이
고물
네타
도축
시승
소방차
꺼낸
천상
부러지
국민대
지긋
SN
오아
삼계탕
DLC
국빈
로직
묻힌
애칭
파면
부렸
상충
별관
친족
핵연료
아사드
Michael
값진
누진
허정
호로
어루
원초
대낮
유사시
넬슨
징병
킨텍스
처신
##받이
그리스도교
부안
섬진
세이버
축이
혹평
순경
유채
직이
보험업
준설
관공서
곰곰
마자
신통
낭패
거쳐서
사색
졸리
천진
남친
는디
정회
호적
낸다는
노랫
대진
##eck
고만
쿠퍼
순탄
##uth
하한
올랑드
인도주의
빅토르
화천
이청용
객체
뜨거웠
로열티
대리석
도수
테헤
각급
우가
##EE
기갑
왼발
바야
정취
튜닝
이기주의
간통
권선
메이트
##다툼
##일체
경호원
캘리포니아주
니체
다이오드
##킨슨
애슐리
근현
뽑힌
##85
다가서
수해
쫓아가
철제
##베르크
일거
라지
지카
Vol
소용없
답장
화단
Rep
극본
외자
이과
블리자드
##개골
라이터
비꼬
굴곡
소피
반칙
악보
오랑
지퍼
RA
구례
김옥
정약
지날수록
Je
이유식
판단력
블라인드
진달래
곤두세우
아수라
니켈
영화배우
홍익
##브르
부풀려
테헤란
중일
##요금
##⠀⠀⠀⠀
신격호
인화
강경파
추수
나눈다
풀어
스마일
건과
절실히
##ㅋㅋㅋ
ㆍ여
없앤
외장
체스
후한
2100
시커
시끄러
JY
베니
토미
견의
아몬드
아폴로
발끝
예고편
싸워야
##렁거리
신호등
##하이머
내림
##ason
##66
담뱃값
내진
고칠
숨져
전매
남인
논설
세아
오동
총통
넥스
묘소
one
자물
저스틴
파와
으면은
조림
서귀포시
계보
엑스트라
우먼
입소
휘둘러
##ever
개헌안
위아래
역사학
집시
융통
중얼거리
당무
지선
PA
수트
교육자
높인다
정몽구
순순
이춘
헤딩
게임기
사과문
순천시
Ne
불매
재보
분개
지반
콜드
특임
구려
##더드
흘러나왔
백일
팩토리
##ient
세워져
빼어난
자며
철판
##ury
과속
대일
배나
센텀
트렌디
더워
전주시
선팔
슬그머니
사업소
교문
##alt
북스
애틋
정읍
제청
젠더
토기
##거름
전도사
바그다드
키친
투르
활로
##버른
소작
저그
모진
서병
와우
가로지르
김덕
빙상
추의
달아난
레이블
떠받
전래
피어
흉악
비쳐
차린
207
역전승
식빵
아기자기
분담금
발등
##ats
##ature
세이프
더없이
##대군
무함
쏠림
어획
개와
밀의
솔라
##28
서태지
가즈
성시
inter
연두
유급
조양
합체
950
줄까
##꺼기
##메리카
1923
##ica
밝기
연타
절세
상계
정미
별세
부적격
설계도
퇴직자
상속세
부단
양키스
정월
##질서
##ari
베어
##코르
대물
사행
항공권
통치자
꾸몄
찌꺼기
콘테
통근
##내렸
개도국
기압
비상사태
오락가락
생가
지하철역
가면라이더
고화
누설
패스트푸드
온기
왕세자
로제
위급
잠기
##패스
양립
찢어지
오른발
강석
멜버른
내려지
##보살
베네치아
그제서야
노자
매니아
외적
학번
닭갈비
민원인
인칭
달려오
해시
엠마
주성
노벨상
비노
여쭤
누굴
일개
브로드밴드
스즈키
카미
받아들인다
견줘
더디
바쳤
복안
209
우상호
MIT
OO
선례
후려
반년
모로코
심히
입혔
초간
##네이터
본격화
변증법
문대
터스
소이다
결점
피렌
라이온즈
App
모어
예치
와이드
##당초
한국일보
구급대
사저
각별히
끄집
살펴봤
맞닥
비스트
박인비
영호
무수히
북서쪽
도식
팩스
##프로
생계비
문무
봉착
##조치
##버터
박한
일리노이
##right
ㆍ기
볼보
실망감
이권
개울
치워
스탠더드
파국
잃어버렸
캔디
피난처
라구요
장작
##oom
데요
증빙
지훈련
##나절
##캐스트
연구비
황과
신예
##TRA
fe
노블
억만
6500
공여
별자리
서현
##27
돋보인다
수호자
독식
일회성
흔쾌히
상냥
셰일
##쩌둥
매운맛
실루엣
항문
하모니
열연
쿠페
##운동연합
마오쩌둥
##마음
일파
코스로
##55
##앙스
맛난
문학사
유니버설
에밀리
블러드
산도
승기
너비
전병헌
애프터
UC
형수
감귤
납작
종파
강가
계십니다
찬의
김광현
사절단
희생양
진통제
아브라
제갈량
반세기
##딩크
개인주의
문고
보수가
타이탄
위약금
오두
측량
AIIB
재팬
컬럼비아
뚝딱
훑어
##성동
##케어
되물
##막염
나온다고
심리전
##대장
211
중사
병자
불러오
믿기
저작물
내국인
호반
나눠서
교육학
과학고
##arm
창시자
깻잎
제방
발포
참의원
최하
에리
포병
분간
다쳐
리부
튀어나오
전구
역사관
근무자
가로질러
천마
##좌석
떠들썩
닉네임
수잔
연화
추계
1922
경실
산천
인피니티
비나
얘긴
will
타원
##저나
##규어
히딩크
##ush
##가드
필승
440
출하량
맥아
모바일게임
720
반주
선입견
어루만
##수무
##맥스
추돌
협주곡
형과
성북구
그나저나
그란
깡통
임태
치는
김영철
로렌스
모퉁이
설렘
Phil
RP
YG
상병
한테서
한다면서
##add
치도
밀폐
앞세우
아늑
##수정
William
결부
벌려
del
무주
카타
불러올
방범
홍진
배상금
대제
돼왔
반미
##ator
파괴력
카니발
노크
##매장
시구
##oint
라지만
레오나
앞당기
파시즘
베인
##자동
서동
고등교육
다비
##연금
##44
전산망
서대
콩고
##outh
##DC
방호
배리
안쓰
코코넛
##칩니다
겠다
##36
심장병
빡빡
인천항
물리학자
KF
##버릴
##urg
애드
차출
460
바이크
연천
캡처
스포츠카
상록
2300
TEU
CV
전등
등단
##폴리스
WBC
##실베이
##실베이니아
압록
연연
비겁
오도
어쩜
##정리
##일비
고기압
영결
후견
김포시
습한
##다발
뉘앙스
펜실베이니아
령도
##레즈
갈림
넘나드
다윗
전속
탄광
현판
려나
염기
쓴다는
교화
사대부
범용
완의
부주
유미
개당
악단
재규어
min
서상
엽서
순순히
수모
재산세
불면증
거르
단락
후세인
강희
버젓이
뒤틀
알찬
어벤져스
박석
생과
피웠
Art
명만
##erc
good
하이데
자물쇠
위기관리
한경
NFC
진중
팝업
##마니
##ealth
낸드
린다
설전
한승
GTX
의미심장
양구
충칭
##불호
사우나
감미
뭡니까
##76
tw
구설
스콜
수학자
김두관
본사가
방불
속편
큽니다
간암
은사
청담동
김철
존립
999
금빛
영락
도인
화원
사립대
전월세
##림동
##ited
##uman
내무부
빙판
알차
그리스도인
간청
ㅡㅡ
하진
##전쟁
무함마드
조던
보여요
허덕이
헬렌
##가미
쓸모없
타스
##레라
시종일관
교학
양치
열대
호불호
##샤오
##irl
뛰어다니
박창
##RC
ㆍ대
마카롱
명물
##orean
간만
Ab
등산객
반듯
ㆍ공
살인자
네놈
살롱
찌푸리
성큼
전위
행진곡
걸려서
나약
신중히
대패
##느질
교통수단
닉스
대시
뜻깊
종묘
하가
겸허
성곽
##양함
##기념물
기막
빨갱이
감식
듀스
박은
남양주시
부쳐
비지
급상승
김중
미남
뒷좌석
선불
대한제국
mod
성행위
였으므로
온난화
창이
모셨
병풍
손등
환희
세계사
구조대
고용부
comm
교통망
덕의
##스턴트
블의
##II
조직법
DA
일임
바친
훔쳤
전태
통운
##링크
들어맞
무기력
연단
경영난
학벌
곡인
냉철
메리트
##득점
도급
경각심
아꼈
##원회
순정
지프
크리티
기념회
남겨진
음색
추미애
한국군
프리랜
도망쳐
까만
부기
비문
용맹
종주
##간접
사이코
달려왔
천연기념물
문란
##자스
흘러내리
들이닥
대학원생
들여놓
안내문
되돌아보
교신
박광
금물
독해
자켓
타케
##ates
희극
스타킹
문학관
야쿠르트
라스트
빈부
해리스
등록증
밝혀져
변별
프록
##동산
기말
디딤
리딩
아디
챔프
최현
어딘지
끈질기
ㆍ인
명랑
엄밀히
1908
후진타오
박연
난립
육신
인스턴트
튀니지
파리바
단양
힘찬
##비용
금주
컨트리
세계유산
전광판
##ridge
##지우지
장구
좌지우지
퍼펙트
황진
##티모어
시댁
so
고깃
배어
중략
##78
알아차리
모함
국무회의
별반
전해져
어원
AA
성심
##rain
던진다
##투수
프랑스인
라네
지바
청구서
소위원회
모나코
네이션
웨이트
치웠
친지
희망퇴직
돌이킬
Mon
요일
미켈
월가
##더라
짝사랑
##라이언스
BGM
빌리지
한계선
떠밀
원청
잘려
시럽
노년층
낙점
왕권
편승
따라붙
대행사
쿠로
항모
##irst
정육
차후
한신
와해
저어
찾아올
##rew
Cor
손보
##ein
려는데
급선
만듭니다
매서
옹진
소형차
럭비
##렉트
이케아
안일
정과
이병헌
Mod
카카
케이프
리티
뿌렸
##문트
날아다니
병무
엄밀
여소
전성
쫓아내
##ien
##도록
권혁
화전
530
서바이벌
호시
박보
신동주
##니엄
여종
245
마운트
DI
볼티모어
비염
점막
##제르
바라지
이끌어냈
안성맞춤
명세
만리
진다면
다니까
배합
석회
치욕
쾌거
공고히
괴한
규슈
최원
매겨
246
마르크스주의
향연
제너럴
로페
합해
##믹스
와요
개요
주희
##네즈
라덴
다이어리
나날이
미온
비도
두말
안종
브라더스
베르나
금과
애원
이동식
로드리
카펫
타우
헌금
##마른
##축제
##슬로
움켜쥐
##콰도르
소질
##정원
방아
소와
##투아
어우러지
Eng
공덕
태산
임정
캄캄
##아트
조선족
리허
##연수원
런닝
열사
변함없
American
갈매기
에콰도르
##달리
일족
종착
##inn
기흥
저점
클라라
고품질
끌기
금융업
진실로
죽이기
1912
1921
레인지
묵살
재결
어지러
하회
채굴
마술사
앵글
항성
부르짖
장엄
피처
국조
마이스터
쇠약
웃겨
##34
거느
남조선
접했
진가
구월
프랭클린
박철
하스
##oun
고덕
##화학
##림픽
228
선발투수
입기
카이사르
벤트
스파르타
kW
패기
##스러운
##비슷
국민카드
접해
흡혈
##ions
키워야
다독
다승
태클
그럴듯
트로트
기권
불어나
##카스
걸어야
오로라
국인
랠리
육식
팬텀
##태영
##테르담
물줄기
사들여
##펜하
다가온다
엇갈린
성종
##OA
속마음
최문
폄하
##대식
##OM
이사의
MLB
Act
분분
개종
사야
잡힐
허기
기라
방파
해협
두개골
흔치
##포스
##로웠
##31
신경질
어울린다
임상시험
위도
은총
자형
즐긴다
펑펑
렌탈
빗발
어온
스타워즈
점잖
곧잘
오감
청순
##ba
돌아선
빨아들
안병
가용
헤어졌
##시요
결연
달팽이
발진
질려
드러낼
제니퍼
난데
작인
최루
fr
루이지
헌장
##로로
합쳐서
프리랜서
##꼬박
꼬박꼬박
노이
숨결
로군
평화상
기뻐했
계망
배차
음양
특산
한답니다
휩싸인
민수
##이동
거닐
고체
변종
성씨
##로호
두드려
죄악
겠다는
투숙
##32
신년사
##round
잠긴
쳐도
##연설
을지로
부총
##사의
##버스터
지하실
디플레이션
부영
신조어
지령
감돌
교습
천리
매달린
큼직
##46
현미경
매점
모아야
국무총리실
중화민국
바꾼다
도운
쓰여진
스텔라
복고
뽑아
##98
APEC
갈의
목조
나니
비운
오즈
퇴적
협곡
구룡
자크
재조사
골라서
끌어들여
신드
지정학
##ural
코멘트
표로
도메인
연기금
동호인
물동량
was
닥쳐
렌의
부침
불태우
튀어나온
진드기
과업
십시요
해머
기생충
hy
특단
옥스퍼드
강림
관우
두른
창밖
포티
영양제
권태
똘똘
데이브
##팔트
삼청
원샷
이보
장시
##42
sn
글루
봉우리
빙그레
뒷전
마코
알로
교통량
다녀야
최적화
돌변
살충제
청룡
췌장
##77
##ze
아스팔트
Dis
로만
##노프
##거품
##태용
이용료
##inal
칸막이
김춘
평결
##재해
##하여
된답니다
딸아이
다람쥐
알람
폐교
가람
리나
내게는
선착장
교두
##회관
주치의
호호
##bi
공공연
오우
탄환
동천
초소
요양원
김진표
취량
##코비치
##히코
수화기
원성
##저래
##orge
반대쪽
축구장
반품
세뇌
폴더
하숙
소다
원세훈
UF
세난
야전
퍼팅
미지수
빵빵
천자
민박
스메
피셔
성년
위드
날아갔
버무
병들
연민
나이프
광둥
나이키
명기
몰아가
피칭
구매력
pre
꽃다발
수라
안겼
##잣집
눈매
표고
부랴
제프리
가석
여장
잔금
귀향
##미리
##영향평가
216
맞춰야
세무서
어때요
졸속
층간
##퍼트
원효
bbc
권투
덮인
구걸
데니스
바느질
악장
바꿔서
○○○
미진
수온
필적
##광장
##언정
글렌
##unic
중금속
박완
싸인
##큘럼
기다린다
못난
##ani
강인한
눈초리
가브리엘
본받
삼양
최면
##유사
열혈
통감
성동구
신학자
미연
##수염
자유당
검단
전조
환경영향평가
들키
지마는
밑거름
북상
웬일
잘생긴
##gram
자유자재
like
근교
버팀
연호
성모병원
괴로운
난색
이글스
하마스
아미노산
Pe
당수
밑반찬
사탄
첼로
##덩어리
##펠러
단자
소피아
조셉
천성
석탑
이너
캐롤라이나
양념장
커리큘럼
라오
주례
단행본
포섭
낭만주의
공론화
gu
모신
샴페인
세조
심성
장단점
와라
퓨처
외대
망라
체로
대학가
mon
종단
꼭지
메세지
번져
쌍방
질질
대수롭
라거나
휘두
##학습
자임
##oot
행정소송
##ICE
AB
존치
고속철
금값
redpic
기선
덜미
만델라
면면
서글
여군
돈벌이
밥그릇
이채
중식
배아
추스
괴수
구먼
오노
정력
##epic
광명시
##질렀
우리투자증권
보탰
광택
치하
생리대
백종원
##레트
비대칭
Per
경련
도선
생각났
상한제
문화방송
자금난
난다고
정강
전기료
코난
연마
오스틴
초고층
보쌈
개소식
개진
내보냈
비수기
중론
세운다
니콜라
깜깜
용액
2800
넘어오
mp
##수도
맞아
송강
조중
##요시
기조연설
맞히
스텐
짜장면
##비어
인디애나
##ML
수출국
피해액
무용지물
발레단
독촉
망한
오보
이덕
타도
크라이슬러
모교
잔재
##바스
긴다
피오
##조작
영양분
실외
찌개
명곡
자분
허드
공급량
가벼워
##메이트
##나간
수의사
고흐
코우
전면전
VOD
줄리아
트리오
흩어지
의뢰인
부총재
말다툼
문병
##82
크래프트
삼각형
서킷
390
bluepic
환각
아까운
졌으나
##91
민병대
에워
끈기
주물
안전장치
가로챈
광산구
라비
티코
미제
약수
DMB
나일
충청북도
col
열띤
커넥
##공주
귀의
2700
원비
윤동
##프셔
무더운
자청
코딩
부화
체구
유통망
담사
확연
환경운동연합
540
갈림길
수구
뒤따르
KIS
머레이
외전
측도
##열차
사법연수원
스팅
오송
담수
자성
255
리허설
종아리
포브스
UI
백운
아이비
요시다
자활
##유리
밝혀냈
커맨드
까맣
회비
자연재해
프리킥
방어율
빈센트
칠곡
다이렉트
집적
##38
560
메아리
병든
피어나
기마
노역
알짜
잠그
쿠팡
##도니아
블록버스터
app
백억
정상회의
예비역
패럴림픽
재빠
rad
속수무
오퍼
##황후
속수무책
리플
변덕
보아
월마트
##화나
공양
기왕
호통
##79
귀걸이
풀려났
진에어
##이센
##끄럼
rub
원희
헤아리
##rim
웨일스
##ness
폴로
ICBM
무방비
팔의
크리스틴
스파게티
결손
2600
엽기
풋볼
조원대
부사관
고속철도
고노
흐릿
황태자
만수
본진
##뜨린다
질린
프로이센
대기실
붙잡혀
pe
고열
동떨어진
베르크
핵과
##ral
장마철
그네
비열
##ao
can
리브
투자처
김수현
대관령
애덤
재인
##야스
가르칠
하물
##린트
그레이트
프렌치
감명
상층
수치심
안토니오
정론
콜럼
영상물
서천
완제품
##거림
##종일
NT
암묵
장충
##oad
##ster
고관
백이
총서
권리금
총력전
table
군기
기판
모면
기네스
세용
이상민
다변
밀실
기관차
적십자사
노파
울창
취수
226
맞춰져
봐야지
쓰러뜨리
오존
다락
명지
##재현
##led
침식
##세라
##치마
LTV
달랑
독과점
배석
김상곤
고프
가정과
에스파
현관문
의왕시
POP
유원지
인색
조여
##41
TC
주포
퇴거
Lv
클랜
표제
##라치
클레어
설리
##EX
##37
1911
되새기
급박
마담
노드
셀러
신간
켄트
##AAD
김여
엘레
조달청
섭씨
잠적
##세웠
기억나
우승컵
단호박
미공
진군
동시대
메디컬
가느
근저
라멘
적과
이주영
가석방
석권
윤희
창호
변속기
##por
WTI
고승
얼라이언스
걸세
무예
울지
이봉
호러
홀드
##손가락
의견서
살인죄
이인제
건널
아킬
정렬
펠리
OPEC
당적
##벤처
행정학
불행히
전생
##타니
이효리
자카르타
가발
사민
외삼
##사이드
아우구
내한
##of
암벽
예예
##olution
이광수
근속
기교
##조류
바인
방편
버니
불금
종과
기록부
스러우
에어백
SR
닫힌
마쳐
함박
스타일리시
National
간이
시름
흑색
정두언
지방산
달려온
공학부
휘하
잇따랐
토요타
익대
유니온
제보자
운석
반신
단상
해전
후식
##ated
등부
잡화
카츠
##VA
Stud
백지화
러블리
된지
달라서
합천
자본가
양육비
낱낱
어림
개인별
##문화회관
가비
구술
도다
지휘봉
의석수
강팀
옐로
민노당
아실
폐가
##ka
소극장
함평
베어스
이홍
자몽
함장
협소
##케이크
프로덕션
##ows
등심
애비
##어먹
세종문화회관
생산력
영결식
검술
시문
제창
##천사
불운
오영
챙겨야
안드레아
둘레길
일석
앞면
전언
##방위
피카소
급인
라시
##uch
수천억
잔디밭
TOP
은빛
난자
선거일
서성
피시
현대건설
FDA
겨누
뒹굴
마곡
퇴색
##가슴
반바지
원종
관악구
윤병
교직
##가요
값비
껑충
꽃피
라크
채집
승부조작
레터
성난
##라이터
행여
행군
허전
순한
유업
콘테스트
svg
채점
광진구
술탄
흔들릴
Good
균일
이낙
에밀
비닐하우스
##ring
할인점
##기계
레온
##튀김
your
말소
외쳐
하물며
옥외
첫발
해직
니콜라스
물거품
박유
심할
떠올려
기단
스팟
점원
닉슨
윤정
대나
##테리
우편물
고음
정보국
바트
장녀
한대
협연
붐비
나아질
탕수
걸기
망할
##이티브
그려졌
광해군
박시
##령관
자산가
들르
스피치
혼혈
촬영장
수리비
양조
호국
##토토
국방위
퍼진
항이
##43
라즈
레아
이백
팔뚝
##나미
상한가
발렌타인
크리에이티브
마스터스
##89
상업시설
괴담
수증
##칼리
대마초
경장
동태
망했
아낙
386
자다
절상
계산서
앞장섰
탈루
교향악단
화로
건당
횃불
장갑차
부축
분교
팔라
충성심
외도
직진
필수품
교착
문전
확실시
경실련
Pre
온수
##톡스
Mus
사오
무개
반반
죽임
부러진
하녀
노점상
뛰어났
린이
위트
THAAD
카바
헐값
은평구
데일
빗대
작과
경남은행
돌려보내
##용석
부문장
완충
파헤치
압록강
mill
괴산
레비
진찰
보합
마닐라
드실
무패
창업주
조목
##59
외야수
호모
훤히
##74
기본급
와이프
##IL
몰릴
1906
성범죄자
참작
##대표제
낙천
특례법
대규
관리도
기복
치장
풀어놓
설명도
TO
풍물
국민연금
##드리히
뚜렷이
정약용
ㆍ소
BL
새싹
위증
원어민
약칭
페라리
##71
##약청
블레어
설도
설상가
어렴
외양
##roup
해로운
##부랴
카르텔
기슭
음미
동작구
존엄성
선서
##미사
최고점
설상가상
BR
클러치
PH
박아
약재
간간이
면죄
토스트
##port
는다며
습성
럭키
정숙
##ux
##리지
선수촌
목과
상투
재야
오스트리
망막
울분
호리
##73
극성
부주의
팔다리
삼국사기
NSC
떨림
##usiness
칼리지
아이언맨
무형문화재
그린다
상근
실바
씌워
하층
할로윈
리필
속인
숯불
원생
맞물리
머뭇거리
부랴부랴
건성
문창
식약청
마사회
GO
냉혹
##나스
##ould
등불
국내선
스파이더맨
이복
탐지기
Inst
생동감
포워드
프루
##구려
아래층
도자
광동
칙칙
##네시
##ross
지은이
진두
반말
이발
##play
속력
일률
입항
체험학습
rob
적외선
태수
신고자
rec
골다
세네
구속력
별미
우표
홍의
히히
남서쪽
정운찬
어렴풋
Rel
노린다
##29
재능기부
스테인리스
래리
명가
인친
##채기
##블러
MRI
도상
노루
뒤엎
토성
Inter
함부르크
이동한
교관
남도
순결
으레
가변
귀순
발찌
헌병
공탁
딜링
바니
헤치
해운업
국산화
Des
동일본
ip
난해
무턱
##tm
한의사
배운다
찔렀
##ih
##놀림
해야죠
놓쳐
프리드리히
특파
##랭크
스포츠토토
조모
마지못
blueban
진시
##여객
러시아인
##EST
피플
형체
직과
하구
고농
맞설
홍영
##떨어지
RF
신해
##르바
##ros
걸어오
Ver
가리켰
홍역
강유
단도
##미스
##진흥
##노미
아랍어
주려
##포동
##acy
660
redban
시끄러운
정부안
광고주
파이팅
버밍
어진
학내
##스럽
275
문사
반점
##ally
독백
회계사
시공간
love
사천
성욕
써니
맹자
손주
채색
##홍철
470
봇물
순직
여명
세계일보
현충원
대적
판독
##커버그
경축
나락
목표물
들통
섞이
끌어올릴
원목
페인팅
시킵니다
오성
키프
파츠
##무스
지나쳐
아낌없이
살수
##무새
가격대
지도층
아삭
터트리
도미노
조현아
디딤돌
베니스
완승
날렵
##티콘
부들
알베르
레인보
KLPGA
UR
가린
문호
선종
짊어지
필하
시민운동
교두보
책방
헐리
대주교
follow
동족
면직
아트홀
캠벨
미하
##겠다
십의
도토리
백조
병아리
천차
피조
##스톤
이래저래
##츠하이머
어딨
출몰
크리티컬
빨갛
떠오를
알츠하이머
없앨
장학생
##음료
여중생
귀금속
비탈
서프
아뇨
한국개발
우스꽝
##rown
##진진
연작
##신호
기니
기출
잔고
철광석
##65
낙폭
묶음
줄다리
막부
의인
##ely
사르코지
남다르
레베
건도
볼턴
불합
송아지
장현
전열
인사이드
연금술
고베
예단
##라이즈
동강
말살
##추럴
본청
상성
수놓
스플
양정
이카
차곡
변함없이
배재
페이즈
비례대표제
자국민
ㆍ전
우치
위세
직사
김만
자오
분수령
값비싼
##omas
사회당
특공대
##evelop
이낙연
궁정
나팔
##군데
산신
##oz
비틀즈
외연
##콘신
##itch
벡터
어처구니없
교동
농산
처칠
##클로
뜬금없이
Life
역사가
문진
단일팀
실지
가르시아
델리
오리온스
쿠르
나가사키
조심스레
에바
통솔
##혜영
제정신
위스콘신
고화질
망가지
빨랐
행자부
Off
Richard
기입
사서
석차
판과
레이첼
##일기
홍보물
KAI
담기
도트
제빵
조병
허망
##eek
di
맘껏
HTC
걸으며
현빈
##네트
거렸
육회
허름
##MCA
가압류
볼라
쌓였
춘의
형인
##박혀
상아
저당
##스코트
한국개발연구원
격하
김성수
범퍼
야유
통할
가르친
삼국유사
임성
총선거
실력자
도넛
아츠
대한상의
대판
사발
승합
풀뿌리
Sec
조찬
허비
연장전
무서웠
암스
채비
기다린
상담원
황혼
410
메릴랜드
요충
##축구연맹
광채
영사관
미주리
난장
제복
##94
셧다운
##다이스
증권가
조나단
오아시스
##agement
공시지가
다분히
난치
힐러
최상급
탄원서
모하메드
치프
장승
뿌리치
프라이데이
##여름
기본기
라자
쿠스
할증
워시
시간표
1909
라던가
정청래
내추럴
무디스
1904
거만
공터
암초
타사
블랙베리
##프라노
서치
북동쪽
연발
이사국
3200
뿜어내
상서
인산
##중기
부풀리
##iation
GN
내민
공리
발자취
봉황
셀피
시제품
획단
저격수
아편
##상도
##탄두
감사관
붙여서
정설
차단제
빠져나간
일등
최희
방광
사간
이웃집
러너
승복
이분법
파노
감정평가
던데요
흥미진진
##감독
망토
원예
##ena
휘둘렀
##특별
도와준다
나았
총탄
##avel
꽂혀
파마
##lish
누운
시늉
향방
은둔
쥐어
##pr
진보당
마이크로
헤아릴
발대식
뽑히
라이센스
개탄
누님
부림
투항
##97
##복지
정부서울
가져간
정부서울청사
눈덩이
얌전
##산업개발
자판기
굴착
냉기
도살
앞부분
적인
##우면
##카메라
끓인
돈독
미관
증이
##공증
채지
통했
팀워크
221
된장찌개
트윈스
빽빽
탐사선
에반스
본다고
질까
폭등
하태
BJ
권세
임재
##티시
경비대
코미디언
읍내
타령
열병식
닫혀
총국
홍차
##제한
목구멍
무서워서
soc
밋밋
벨리
어드벤처
안다고
판가
김관진
노아
타임즈
거미줄
노량진
불응
석고
직간접
극작
증과
셔요
##클레스
탁의
ev
사바
##다닥
아스널
교통비
스킨케어
끌리
##랭이
직함
##IV
미국식
셔틀버스
땅바닥
##유업
##불명
골다공증
나로호
요번
보내왔
줄다리기
Don
예술단
베네딕
승산
올라타
Charl
쉬웠
돋보였
right
응의
아름다웠
법원장
피사
막대기
계략
##istory
버팀목
Mart
시료
파드
혈전
휘말리
거침없
Day
진천
헌데
외할머니
je
빛났
씌우
작자
루카스
견주
따낸
바라본다
기동성
임관
추문
부대원
time
스나이
911
##work
ㆍ경
로밍
의료관광
발끈
영이
트레인
올려놓
김봉
리전
모디
체념
LO
박제
소탕
합한
##일레븐
이만큼
부딪쳤
암살자
타박
##사장
sub
분업
차주
640
뇌리
동양인
꾸지
콧물
대할
삼림
싸구려
정한다
##47
##스트로
보였으며
늘어선
금치
브론
송곳
에픽
##itz
##ret
시트콤
쟁탈
좌완
참수
호구
##스토리
정해졌
수완
##저축
늙은이
능력자
대장정
위층
파라다이스
항암제
업인
좌장
주진
시흥시
범어
팬클럽
다이나
낱낱이
넓혔
예멘
픽셀
##86
순익
영통
올립니다
##장난
상영관
남양유업
파수
수족관
단초
튀기
보였으나
##mann
했으면
##애플
제언
리얼미터
기무사
ke
vol
대손
요로
탄창
한영
오른팔
강모
시게
에메
유카
언어학
무거워
메소
미행
##49
##광역
포니
불가사의
물어볼
PER
격분
변방
중처
##호우
##포로
##MD
산양
사월
쏠린다
조커
##모자
선크림
##순간
발췌
잠겼
##83
제설
##ij
우지
피에
금회
대머리
어긋난
미궁
왕좌
초토
##티티
##레미
천일
특파원
대야
사하
##양이
##워프
낙찰가
자랄
색은
엄연
해양경찰
벌크
자인
코퍼
엇갈렸
승강기
##프레소
Wind
도처
변장
양방향
템포
흑의
보호관
따돌림
김근
대리운전
ISO
구심점
박이
히토
바빠서
파로
화목
찾아낼
퇴역
걷잡
결장
임영
페라
한해서
##아졌
##ones
물린
##ney
김종필
그레이엄
세븐일레븐
시발점
징크스
##만치
2050
사회봉사
학기제
1895
팔로우
차상
캔자스
지나칠
한데도
전용기
매튜
월터
##가을
그리운
치료사
시그널
마리화나
뒷걸음
시온
재력
해결사
##끄러미
HA
라그
고된
##번스
미래형
태양계
소나타
슈틸
##토르
진단서
YMCA
마타
윗부분
##바오
라파엘
제쳐
코네
##81
기지국
소지자
활기찬
감칠
마주쳤
보듬
사그라
최윤
눈감
제수
성신
마르크
피소
내보
생쥐
##PN
방비
카사
##콜리
기장군
유토피아
슈틸리케
Op
반인
역류
통수
프런트
##멩이
Bo
블랑
수전
##만두
애절
야영
잡아가
232
도립
현정
집중호우
핸드볼
면허증
키는
##구조
이끌려
노릴
원정대
길들여
뒤졌
명맥
종점
희비
되살아
모티
빠듯
앉히
평야
태반
##ody
이슬람교
헷갈리
명태
덮밥
상무위원
KC
아웅
억누르
한솔
##집행
조니
##선미
합숙
해녀
1915
갈라진
가로수길
차곡차
문맥
폐단
말끔히
단비
리자
직설
차곡차곡
자포
짤막
에이미
스택
청색
끊긴
앨리
로빈슨
공실
서스
앞머리
한남
##라호
첨가물
KGC
사온
육사
##ious
현대산업개발
인사동
조각상
현란
꼬이
##중간
슬리퍼
면죄부
모라
##비안
다가갈
리커
af
도시바
바자
윤지
##명령
나와도
끈질긴
영산강
홍명보
늘어지
섭리
여아
장막
##달라
프린스
마신다
백설
장진
쿼드
동의서
돌멩이
##apan
부전
전압
제르
이기도
도망쳤
결백
핵탄두
오라클
장신구
내디
상작
잔존
축조
겉보기
망언
##ency
겉모습
주효
송영길
품절
##rop
Vo
따졌
브리스
노보
서평
##맘때
어려워질
왕자의
섬진강
다기
불감
사쿠
이펙트
벌어들인
아로마
관인
제제
헛되
##gy
##창수
GC
끼쳐
이끼
출금
##ior
조원진
피파
박주선
신드롬
펜싱
PEF
성자
학적
외딴
212
후반전
골머리
비기
초계
ㆍ보
굴절
색조
속셈
툭툭
주무관
살아오
##ather
고은
광활
구겨
산성
원나라
크래
살펴본다
##iety
덕택
임야
중종
다시마
##스타일
뼈아
망설임
GHz
내막
원제
##작전
##버리지
단시간
레크
공공시설
특허청
쌀국수
민물
코로
개최지
샌들
시보
유나
##리드
경수
냉담
##67
일용직
리니지
온스
저버리
##신라
##라이언트
낸시
##za
가보
귀추
깨졌
꿋꿋
생업
솔선
엄선
훑어보
van
##타고
##erry
##eam
네이비
워런
큐레이터
8500
가야금
격투기
날치기
상은
엄벌
마케도니아
fa
배웅
수재
이변
##그네
밀려났
포르쉐
Ev
눈시
유월
클라이언트
몰려오
미간
적막
플렉스
##way
##52
발맞춰
눈시울
다던
갑작스레
예천
황해
알려야
모사
스펠
영영
찍히
창사
풍조
BT
구구
아름다워
깨뜨리
세일즈맨
Red
견적
학도
곰곰이
노면
아벨
한울
##63
서병수
앙리
웨스턴
장서
허리띠
Econom
들일
여교사
슈미트
버밍엄
신당
##요미
가도
##ger
##체류
농수산
궤적
김순
스펜
용두
황량
비수
##번트
##캉스
성냥
요점
발칵
사별
서에
안색
혼잣
구안
바캉스
팔과
##반사
노장
심연
mail
개천
에이지
김진태
가점
숙취
톈진
따질
바이킹
났으며
마네
오롯
패닉
sbs
숨긴
알콜
뽐냈
미첼
틈타
##촌동
대형주
액세스
다각화
플루토
기혼
물끄러미
전리
황기
원한다고
독한
뭔데
밑그림
조진
국민회의
되살아나
도전자
차베스
##ND
바이저
감산
분란
쟁쟁
전우
제강
파커
걸어온
탕수육
맞불
##진로
##39
주소지
아베노
애국가
게다
스니
##off
바실
빚어진
응방
미지급
피렌체
나옴
매카
에베
연제
험악
##진다면
과천시
미칼
악행
철분
혈연
화교
주군
관계없
목청
신협
에덴
총출
불법체류
내자
모더니즘
재작
희한
##눅스
담회
비욘
##리얼
##FL
중문
##배상
프로파
금형
##랄드
사망률
옮겨져
조계사
징조
누웠
살핀
아련
##꼭지
부담없이
남겨둔
Wi
##그러운
가지런
라바
최병
##틸렌
##ORPG
조부
쫀득
판권
부숴
삿포로
하여간
피폭
힐튼
##무가
Her
Mic
카가
하르
##54
고아원
고택
수공
##방망이
레오나르도
Bro
가네
리눅스
솔솔
임신부
군데군데
성호
카오
무난히
여하튼
301
은행나무
얽매이
가차
서러
표식
프로그래머
연해
저물
허둥
후궁
강지
진사
그리스어
해짐
경찰대
도태
##덜미
사변
양가
파프리카
응시자
상류층
느니라
발사대
매드
어설픈
cat
직경
진주시
게장
밤샘
앞이
투르크
팝콘
알아냈
김재원
Med
원활히
댄서
일광
토드
괴테
뭉클
육안
재경
##서는
기타리스트
ESS
각막
리크
알지
페르시
야자
하람
인권법
백과사전
center
심오
부평구
조미료
##bl
sw
만사
불붙
향신
세출
##bert
원외
찬찬
패거리
##용품
코스모스
거림
저편
주황색
독선
아흐
명중률
새긴
후끈
힘없이
##심판
프라자
매표
무위
수액
와카
철도역
민노총
GA
미완
번들
빅터
숭실
##고생
##그러진
부르크
물러가
내세울
갈기
문수
서번트
청량리
거버
송유
rel
##레타리아
관방
버클리
벌칙
베푸
야대
증산
지네
수만
애쉬
자야
진경
한족
들려준다
##교차
##금고
봉산
채우기
문물
바빌
부스터
앙코르
주세
휘감
보사
##els
프론트
굴레
NSA
비합
따라갈
##unn
이자이
프라이드
경종
구정
되짚
마더
무표
초년
##무역
##자의
만화책
가곡
도비
시끌
죄질
총대
들린
우후
최동
##체능
대표부
청구인
프롤레타리아
##56
노다
산둥
##감사
치자
쏟아부
왕건
참외
올리버
##ating
디디
여념
##PA
노동법
공경
FRB
삼의
정윤
팔짱
미운
자평
this
다간
치루
깃든
바바
바싹
##eaut
수진
이부
정략
제하
KOTRA
묻어나
샘물
##iff
갇혔
더냐
##시위
거시경제
##라호마
가업
유경
총책
580
문안
##제과
Cal
노라고
벌거
숨소리
쓰촨
온종일
빼앗겼
##맥상
바그너
dem
da
돌담
분립
개발비
일단락
##orts
래쉬
이요
현악
정주영
오클라호마
도하
##its
파인애플
대자
황영
스탠퍼드
유정복
깨알
투박
##반짝
리모컨
난이
노약
배짱
##코트
천문대
가창력
무턱대
노프
커멘트
레인보우
rev
학연
##53
살림살이
중환자실
자결
헤헤
휴학
테마주
급선무
두유
한다는데
스탠다드
난로
읽히
튀겨
무궁무진
석연
획관
##티넨
##ervice
통조림
che
뚝뚝
방랑
유휴
의경
##백산
뱃살
뻣뻣
##두고
나올지
반짝반짝
art
진두지휘
레퍼
소프라노
작화
최수
##87
강연회
줄무늬
후발
##창호
유대교
총출동
넥스트
리마
액화
##누이
배출권
삽화
##장수
메워
##ars
데이빗
##변속기
MG
니즘
##93
##츠크
닐슨
로스트
아포
##길동
과금
꿀벌
한국식
나이스
상동
양태
젓갈
코피
해집니다
3300
EL
박범
박빙
약제
이승훈
Global
윤활
출연자
3600
아우성
사격장
마지못해
디시
토네
##년기
취한다
흥청
##민정
들여오
회개
##히트
##폴리
미개
합헌
MHz
근황
유품
기어이
미혼모
성탄절
불합격
OB
감회
즐긴
처남
플레이트
어정
알아채
녹색당
유의미
저작권
꿀맛
내키
말뚝
목성
최전방
BA
기웃
##패닉
눈살
보우
##ffect
nhs
Fre
마을금고
매달렸
##보증기금
개칭
##오위
이치로
본회
부딪쳐
무참
애당초
잠재우
1913
히스패닉
아틀레
중흥
구기
몸체
뭉친
우롱
일신
Miss
미노
마이어
부서진
소지품
두고
ruby
새내기
휩싸이
티아라
오클랜드
리언
##노위
요구르트
보스니아
나아졌
강병
민지
코스트코
뽀뽀
하중
결탁
슬립
그을
내홍
묻혔
터빈
토가
##보트
하수도
과오
실추
##igital
프라이빗
브루클린
어긴
허의
로미
비늘
익사
##나비
##그래
570
이지스
대각
머문
##min
photo
trans
아르메
III
수빈
중임
푸념
##NO
골대
꼭두
반부
자족
차서
##oud
어버이날
마그네슘
마스코트
광양시
두고두고
대별
리도
직물
화난
아람
주검
문제집
곤두박질
밀레니엄
유임
데려왔
가본
정교회
외삼촌
막중
뻔히
터너
Top
비좁
아뢰
재소
이뤄지면
합성어
이준석
ㆍ유
들락
미납
##르륵
선발전
사돈
시부
예체능
독일인
정성껏
##aster
대종
진우
김재철
변변
블링
서희
차우
병무청
걸레
##카라
김치찌개
오두막
골칫
수욕장
슬러
시무
시편
##하시
드로잉
사스
역효과
취합
##돈나
밀어주
불어오
북동부
나래
달째
무협
유다
알려준
식용유
고참
나빴
쑥쑥
정찬
팟캐스트
교부세
가천
나영
##파람
거리낌
고시원
도르트
트론
가계부
걸어왔
간대
숨길
전해진
교주
배너
선심
편식
##워스
요동치
브로드웨이
레퍼토리
물으
선선
이서
##ha
오색
환절기
##84
Black
몸뚱
복이
속박
추심
호송
건방
불경
치달
이뤄지기
지껄
##64
##덴티티
추악
##57
고쳐야
동체
부록
칭기
연주가
휩쓸려
교권
난제
아이덴티티
러시아어
소방본부
브렌트
Sim
담판
도색
타국
토핑
깜박
대영
페퍼
삼성전기
로드리게
끈적
마수
수려
##62
뒷문
에비
더라는
나쁨
아역
애타
유구
점인
정홍
경구
문지
복통
이재민
불기소
체포영장
동그랗
BIS
배회
재추
##혜원
통나무
쓸데없이
맹점
오를
코파
허우
##스테
건보
으르
##sa
갑의
한낮
##och
##고시
호텔신라
##ople
Peter
떠맡
발칸
보문
김정남
불도
정일
후후
지원서
독립영화
나아갔
##머니즘
잘라서
##공간
당청
다마스
헤드폰
소매점
부도덕
진원지
향응
자화상
ED
rep
곤의
저수지
##uel
##올리
##곡리
253
RS
면사
비잔
장재
헛소리
시켰으며
격전지
무임
##로니
낚싯
얽히
경쟁률
도가니
거사
주먹밥
드레싱
갱년기
남동쪽
녹스
바베
슈타인
최시
아카이
##ype
##승용
탑승객
dr
스스
평촌
252
로니
##특구
##iver
배고픔
동장
손오
응대
켜졌
##샤바
이제껏
홍문종
억새
하키
##나귀
고소장
보육원
리퍼트
로직스
근소
다라
샐러리
신일
회선
##ura
구로구
공갈
메라
참으
수업료
##ship
물대
안위
키드
도이
마드
백남
##른자
마구잡이
드워프
동대문구
발기인
놀림
원기
삐걱
신령
원곡
각축
기제
##WS
공모주
수두룩
ㆍ부
계주
따끈
식재
##amil
MMORPG
비일비
토마
공격자
지사장
비일비재
무르익
게으름
고릴라
노멀
무허가
일동
특정인
중기청
동정심
Techn
첫눈
황인
##ET
하이트진로
원희룡
딸린
약체
위용
Er
mil
오수
천왕
##amer
사모님
자이언트
경원
슬럼프
주마
당명
배신감
미룰
단호히
궁핍
산탄
앞길
전근
친형
행이
이맘때
트램
스에
##석기
긍지
비철
족보
처단
체하
오르막
리포터
중급
슬로바키아
KR
생크림
##서비스
##그럽
미망
재청
환생
##두부
행방불명
속살
하남시
금오
루키
본고
소회
스털
##cess
귀촌
난도
스쿠
펠트
도르트문트
단검
실록
완패
정개
통기
##68
전반전
극락
선데이
설과
흥정
찜질방
나스닥
레버리지
우화
##용지
ㆍ중ㆍ
찬찬히
사무엘
칼럼니스트
랴오
벼룩
##결제
감칠맛
Rec
거위
구식
핫뉴스
후술
##51
##레드
달아오르
##는데도
내비치
세터
##렌스
베이스볼
레미콘
수현
피운
##주니어
아르메니아
멘붕
213
굳건히
소포
찬송
224
산티아
장경
저유
ㅜㅜㅜ
굴비
서안
출렁
##두근
레인저스
우미
좌절감
크리켓
계셔
깃들
정봉
승부차기
녀석들
도네
분뇨
스낵
투자액
부메
##산지
영남일보
요셉
승전
심미
도쿠가와
FPS
고약
전재
중서
제이미
번뇌
전라도
그만둔
문희상
전모
떨어뜨려
이사회
돼온
씹는
회도
유지비
안락사
암스테르담
겨드
차감
계세요
교활
판가름
토네이도
산티아고
감형
당나귀
동교동
원색
홍석
IAEA
혼잣말
발원
카누
회신
회오리
모자이크
장화
이상득
##아프리카
하얀색
인어
타리
이기면
한중일
er
괴상
마장
선처
양강
체지방
해서라도
정치력
해안가
오락실
##테르부르크
Green
고현
##la
문답
부국
제형
책봉
케임
패티
PT
비바람
쇼와
몽둥이
이리하여
##바라크
볼리비아
송승
카리브
갸웃
머스크
오거
##셈부르크
풀려나
간간히
##over
Air
히라
부주석
볼드
정량
Mbps
라나
무바라크
준비물
West
서툴
습니당
신창
찰떡
화정
찾아온다
뚫리
돌아다녔
로와
향식
##rol
은신처
빚어졌
사만
양현종
극소수
단열
모가
호사
굶주림
강단
빨대
롯데카드
급식비
HT
가물
길들이
노모
##만별
##처치
1896
만지작
속아
화이
천차만별
ass
계책
메기
민변
율곡
주영
##ifa
배고파
받아
산발
윈터
지류
##물살
정치권력
배기가스
급물살
악세
##IG
자유형
ㆍ수
어울림
조력자
붕대
교보문고
구획
##어머니
##레이즈
운동권
살아날
저건
저커버그
푸른색
포켓몬스터
민화
평방
감정가
상무부
isis
로테이션
막무가
묵시
안이
미나리
##박사
유일호
건다
입힐
캐럴
##박자
응원단
중앙선관위
유심
김정훈
막무가내
송시
하임
##formation
해다
승합차
룩셈부르크
##고양이
지지가
##aby
간곡히
대들
합의점
말렸
##천후
발행인
이주노
자른
회당
보수주의
즈음에
매서운
서스펜
급습
꼭꼭
알록
유념
탈옥
1916
##ple
##ents
과도기
나른
버즈
석좌
##론자
데려온
콜라보레이션
닫히
매미
몰살
불똥
반대파
부잣집
##복음
비행사
골동
아세요
태어
스트라이프
Val
압박감
후원회
티나
유성구
매개체
발렌시아
스탭
물으면
오열
킬로그램
태백산
JR
가교
##EV
염색체
스털링
굳혔
들뜬
송나라
수속
##치산
끼우
이코
본디
열한
인트
황색
223
후송
##포도
생활고
개인용
라이즈
기스
불임
옐로우
파이브
뒤엉
##겨워
부딪혔
ㆍ한
부릴
##58
무등
성공회
손해배상
감원
컨트롤러
산다고
탄다
##타페
510
한옥마을
어드밴
무표정
초동
슈퍼주니어
이태리
AV
Book
OC
나그네
왕정
월별
힐스
Park
하염
가꿔
전현
충무로
동승
MT
선곡
##노총
방전
해칠
##주머니
고사리
Che
금화
##컬레이터
인기몰이
강호동
몰지
옥천
##ique
영화사
교황청
노숙자
괴롭혔
USA
강현
회전율
주사위
양주시
데카르트
볼펜
분지
뺑소니
하정
통일성
에스프레소
에스컬레이터
have
항균
1894
디아블로
카스트로
스쿼
헤더
나타났으며
가엾
맛없
수복
심청
입법부
저울질
아구
썰렁
총살
테란
레트
패셔
##ita
응수
##uz
두드렸
호실
휘파람
살벌
양승태
JS
size
도호
숙인
은서
좌회전
선거전
고성군
리에
두려웠
번창
##uy
배고프
네타냐
간수
너구리
##den
두리번
그이
##여서
##조목
뒷부분
육감
해동
돌려서
웃긴
응집
바오로
mark
번졌
##셔티브
##비언
##세우스
##ola
이니셔티브
찾아갈
부메랑
구시
나성
세간
##이행
후견인
화훼
##타자
##글리
대출자
##riv
날아갈
신인왕
##민석
유기체
파스텔
슬라이더
val
실베
놀라울
져도
상속인
Social
궁녀
엘리스
옷의
하토
장밋
##부대
3800
동그란
용자
울상
포레스트
군위
떠다니
록맨
부관
숨겼
##부들
양산시
출범식
스크립
1890
구라
##69
수면제
티브이
무뚝
피보험
##암리
227
인구수
치수
동창회
영일
트리트
휘말려
미우
이봐
판별
마운틴
미끄럼
산유국
##선지
교통카드
갔으며
장실
산업재
시킨다고
강해졌
동식물
세도
일평균
찻잔
대뜸
사투
시급히
도마뱀
따왔
행정력
엠블
냈으며
버텼
은밀히
##61
무뚝뚝
남작
도핑
뽀로로
어플
주길
톱스타
##day
나빠졌
뚫려
선덕
##ano
현종
배부르
이찬
##컨드
할인율
허준
인플레
발트
고려인
에너지원
cafe
바레인
실소
허세
##궐기
Ant
니당
성체
지게
##uf
단지로
680
매스컴
Time
독설
라데
보국
약서
##LR
비스듬
거스르
kh
과민
기폭
옐런
총궐기
카멜
특선
스타인
Mag
So
겨를
했는데도
세라믹
봉이
읽힌다
777
아키라
bord
작심
축축
Ann
실거
암각
##회원
오케이
든다는
사납
음모론
형용사
고달
파사
##냉면
##냉키
프라이즈
미뤘
자조
화이팅
##상조
재배치
개찰
내력
도련
묘미
샅샅
지산
해맞이
##제강
##자식
사진가
압둘라
샅샅이
피클
아이리스
통신부
즉사
피식
##문제
지켜봐
복습
상학
세스
으루
day
대피소
음직
포장마차
온다면
초속
홀로그램
핏줄
##로프
코스타리카
갱단
버냉키
신승
예지
창녀
다이어터
계모
시효
##소닉
##플로
217
노니
##맥주
##olf
파노라마
고주
세컨드
알프레
##넌스
윤병세
터뜨린
판도라
브릭스
부산은행
저널리스트
Cap
빈손
지칠
풍년
유명무실
최경주
배와
##오피스
##ington
다거나
만유
출중
안종범
Can
줄임
흩어진
##분자
SSD
재수사
어플리케이션
sl
마돈나
자음
꼬리표
부들부들
격전
레티
카일
펄펄
풍족
##결연
##클레
한국노총
기프트
문지르
식자재
TR
수연
회항
##대왕
보이지
라이플
기차역
공문서
ER
보약
노심
빈혈
스컬
여서는
##트라이트
연고지
권능
였었
이직
##amm
근거지
스턴트
울컥
통이
흐린
##출혈
##버릇
드리블
브리티시
워낙에
Alex
mcc
갈리아
자매결연
뒷산
불러왔
서사시
그렉
매복
데몬
현우
##나기
##멘스
부산물
알아본다
콤팩트
물러날
Euro
민들레
쓴다고
잔다
지는
피노
##치즈
##ogle
KBL
순찰차
공금
명주
였어요
음악인
들어갑니다
올림피아
##une
ㆍ신
본원
어항
화물선
백마
악인
##HS
도망친
도감
##모닉
독살
짭짤
증감
##효진
시험대
부탄
바닷속
그랜트
How
간극
시녀
양용
##선언
미동
숙부
한샘
향긋
보살피
무화
인에
떨어뜨렸
전자기
매트릭스
봉제
엊그
##르트르
두드러진다
드세요
떨구
상납
##라는
##인다고
234
운전대
재작년
동년
배신자
이삭
##ta
사단장
보름달
눈부시
바베큐
편협
##호테
가중치
유목민
장하
휘둘리
훈계
##ied
블로킹
속사
환대
빌릴
악물
##달록
트레일
입담
##DD
##sych
부나
630
알록달록
걸요
단아
타나
파밍
##HA
##라이어티
바라봤
김구라
겐지
일변
##미술
sa
공복
버라이어티
끌어갈
노라면
덮친
듀크
멱살
황재
##대간
밀리지
필하모닉
노상
마을버스
대합
쳐야
연금법
부드러워
군국
답습
공소장
수증기
택할
Inc
전유물
난소
멸시
신율
캡쳐
ge
윤의
지천
##tr
새들
커밍
##아닌
기념물
워프
##낍니다
맞받
반월
토박이
피케
했잖아요
238
다방면
To
앙겔
도로변
떠올릴
준공식
백합
신수
실비
정근
##ipp
금호산업
알라딘
경동
골밑
서포트
재정난
각색
서당
풍류
창립자
노론
빼먹
넘쳐나
객원
##팬지
탑승자
장밋빛
천호
기관사
플래카드
백두대간
베른
수일
쉬울
신랄
얼큰
중심주의
보살펴
작업자
9900
##펜하겐
ps
눈꺼풀
점장
철조
흡족
피상
엑시
웰스
##버둥
도라지
부활절
곶감
극적
무에
조공
코펜하겐
황금빛
프록시
이군
이롭
WWE
에메랄드
마테
살펴봐야
모험가
장보고
향신료
수취
조석
통쾌
##흐로
이승기
남한산성
부러움
아태
참새
초능력
플롯
##적거리
축구단
차분히
ME
격한
의가
가평군
병마
##손실
아보카
Do
상보
쉴드
의령
저금
##ode
최강희
바야흐로
wik
논어
물든
침팬지
##터슨
249
여포
취사
##신기
물대포
초입
풀무원
전자레인지
폭풍우
속죄
오갈
살펴야
클로즈
권은희
벼르
##계선
기부자
조각가
불러일으킬
무학
일직
킹스
##랑크
쓴맛
비닐봉
공분
목공
실랑이
토했
철강업
녹이
교과목
줄기차
사각형
인솔
STA
건장
다반사
시실
애벌레
헤로
느껴져
붙잡힌
혼전
##반구
##그러들
사나운
니코틴
요크셔
미정
전야
제회
스테로이드
리니
폭침
힘든데
남동구
Ac
니키
크나
혹여
##구르
백은
전시실
개회식
탐라
공부방
달려와
미공개
느낍니다
##히토
전략가
##urch
이모티콘
관중석
테레사
기민
만석
별빛
풀타임
휩싸여
사파리
우르르
벡스코
제라드
증강현실
깜찍
민우
범법
사선
시큰
재우
테너
##나우
난쟁이
박신
오호
말단
오뚜기
원폭
정갈
감가
페널티킥
스모그
sec
레포츠
##규칙
세르게이
조목조목
흑흑
프린세스
퍼블리
날릴
루블
문방
산체
실권
일침
접합
뛰어가
동국제강
무로
신사동
속삭이
야마토
열자
주리
퓨어
##알라
덕수궁
감전
데코
에피
이비
일월
팻말
##카운
##치락
문화제
해안선
로버츠
머리칼
흘러들
괜한
유체
시사점
거버넌스
도금
보코
출점
강제성
김영환
##ible
빌렸
었잖
베이직
승부처
스탠딩
RT
됐으니
척척
Fe
괄목
어인
피폐
깔리
무근
처에
측정기
##ograph
갈라져
발명품
섬광
앙금
오레
막힐
엄지손가락
가쓰
신춘
##불퉁
##퉁불퉁
333
주거비
Sw
공물
코마
화엄
다이얼
천문학자
김유정
플러그인
제노
칼륨
헤이그
틴트
사이비
##ival
스킨십
##ison
오미자
해왔으며
299
공예품
기통
손대
##불교
출연료
모름
여비
울퉁불퉁
잘린
졸지
가까울
980
##ugh
스탬프
ㆍ국
그자
딜레이
리히
시아버지
파킨슨
##스타인
커스텀
최규
현기증
거느린
격식
아론
전곡
바로크
경계심
가금
로키
컨셉트
##스민
때우
섣부
설움
가트
태영
프리큐어
##urr
ver
로사
##PR
##수술
244
심심찮
키프로스
용시
지녀
진박
##긍긍
##ional
중형차
전전긍긍
데스크톱
수경
씁니다
오작
젠장
##ko
현지인
김황
포문
##몬트
##urt
##idth
고블린
등본
##문서
무용단
에버턴
감춘
교만
꽃가루
정순
##좌왕
충격파
들어올리
하염없이
##oug
우왕좌왕
관서
가야지
스캐
우윤
적조
강해서
목수
도사리
항거
##세종
##바라지
##eft
후진국
가제
사들이
##스크린
채워져
가실
능히
발버둥
##칠성
랜딩
##막지
누리집
##게이머
MK
수렁
노동청
프로게이머
만든다고
익혔
해석학
무지막지
기막힌
드넓
입학식
프로토콜
Net
eb
신디
열심
4800
교보생명
lib
강산
##ams
환호성
나쁠
브라이
##kin
구용
오간
제패
투게
거늘
심슨
##그로
와이즈
이겨야
동갑내기
대운
번트
본작
켄터
화강
##ough
cor
생도
초이스
형이상
옹진군
High
외동
임해
켤레
인천대
코카인
터트렸
극치
버럭
서다
신다는
##덤핑
##스트롱
살아간다
농경지
투게더
mus
권성동
반가워
해장국
노른자
배변
주승용
준용
헛된
그려지
760
1898
심해졌
똑똑히
크나큰
체득
핸디
노약자
world
##티컷
##룡해
아소
원판
아이즈
SG
Up
식전
잉태
현영
네타냐후
오피
최룡해
bet
지력
##치미
유로파
은어
적진
du
선취
위화
쪼금
다이내
되돌릴
급자
이동평
먹구름
반덤핑
송수
왕십리
탈선
코네티컷
윤여
219
구도심
브로콜리
스노든
그레고리
마물
암스트롱
윗선
작아지
장준
주전자
밀려오
용문
##제한구역
City
관도
역차
임지
칼의
워커힐
파나소닉
수렵
홈피
##고추
네온
##망울
수하물
나시
무법
스트링
불러야
악령
압권
명암
##하마드
대자보
남긴다
미오
사키
##페스트
기름진
끼여
봄꽃
동화책
꾸렸
보부
이도
##very
대마도
개발제한구역
다이애나
670
웅덩이
활기차
##evelopment
우림
231
명예퇴직
기표
벌집
##나갈
알아본
코퍼레이션
리먼
보료
자양
종소리
벌여왔
Elect
Work
빤히
원적
연대기
황희
성형수술
펴냈
힘주
##여왕
##아찌
##로울
배기량
청렴도
사복
##모닝
애완견
둥둥
숙면
관리사
훈련소
로마인
ppm
구자철
사다
영공
라선
송지
포츠
God
사무라이
의료인
##카미
난생
덕담
현자
##ya
부드러움
니만큼
반일
빵이
심고
중등
클론
##제비
윤리학
가려움
극작가
끝자락
양식장
먹일
앉혀
주눅
최지
홍길동
system
나체
조부모
태동
피서객
강태
검시
테러리즘
뛰어드
움직여야
현주소
최형우
##오위다오
연령층
EA
fifa
간헐
오재
흥덕
댜오위다오
박하
양귀
왕도
재범
주호영
##원식
##elle
비틀거리
닥칠
돋우
보리스
정평
강관
굳어지
##sw
무리수
인류학
미확
셜록
지상군
브리즈
어판
지스타
code
조양호
백범
베기
애환
##티어
두꺼비
제각기
걸스
바젤
벅찬
##신도
##걸스
공방전
역적
아보카도
삼켜
에만
절경
역삼동
에스파냐
유생
탕감
폭소
##햄프셔
으니깐
답례
망령
김의
떨렸
산속
호주머니
굿모닝
농락
윤진
카로
해수면
성황리
쏠려
쟁반
초식
##스트림
416
뉴햄프셔
신공
여경
##인구
국제축구연맹
UFC
단신
바리스타
가속도
안영
유랑
불감증
김황식
드니
어주
구단주
병리
쇼팽
페로
##노선
기나긴
운동량
크리스티나
뒤쳐
예비비
경의선
보청
집념
코스프레
안내판
까칠
청천
박스오피스
틀어막
갑시다
수탈
지배인
490
1899
분파
새하
점성
페트로
##수범
##cept
다를까
대여섯
못하
징검
합정
##스태프
시그마
재빠르
Bre
근면
학예
##갈색
통신업
대웅전
델라
민낯
안재
콘스탄티노
관위
구대
다마
세에
싸여
##퍼슨
사무직
배고픈
xxx
거용
명왕
봉은
어정쩡
고명
라드
구해야
##메이카
착시
지켜온
스트레이트
시리얼
처방전
도원
마태
하림
헤어져
##길이
수포
와트
절절
태후
편인
304
센서스
김을
연을
콜럼버스
싼타페
한구석
##트리올
앤드루
코칭스태프
ㆍ제
레프
몬트리올
골몰
무정
소릴
폐차
##데자
보여진다
찾아와서
께선
끊겨
최명
권위자
두만
빗방울
악법
##그라드
work
자일
지병
바우처
##데자네이
위나라
하반
233
대원군
미야자키
Tim
나진
떠내려
실익
장직
전편
친문
##파티
대비책
하이힐
마르티
에디슨
자퇴
##yc
##연재
##arth
확장팩
맥아더
오물
##for
주변인
정개특위
지탄
차고
Thomas
가우
낯익
239
##ama
내부자
##aker
히로시
휴게실
##티넨탈
상파
줄리엣
기공식
무급
은데도
set
쏠렸
연가
친서
##어가
거제시
신지애
cd
버마
좌상
피한
호인
이름난
개학
곤욕
타이트
##도그
##검사
동적
상조
커플링
리지
이용섭
아닐지
##ella
에볼루션
Power
막국수
카세
혼례
지방채
진술서
가토
보세
부정행위
닛케이
준장
건달
매가
석조
저놈
캐디
지배했
산산조각
무중
중퇴
준거
전기금
나온다면
서양인
잊어
큰손
CMA
자메이카
조소
증류
뮤즈
삼위
창덕
초급
780
였음에도
ld
방기
##irect
드셨
빌헬
시미
Class
강기정
하토야마
삼위일체
갤럽
총성
##룽지
ㆍ사회
들떠
솟구
시프트
위니
임했
##일로
##ope
말라리아
문관
위구르
참회
청동기
부역
##니치
##버러
신태용
필러
셀틱
왔으니
타르트
##떨어져
소개팅
식물원
엊그제
bre
숙식
미친다는
우렁
해낸다
깨져
놔야
선화
천신
정유라
루이지애나
솔선수범
매지
빅딜
연우
칠판
예뻐서
예찬
Dan
도읍
번화가
성조
##내린
안무가
스콘
##각각
구독자
아브라함
퍼뜨리
흉노
연지
동심
전사자
##데자네이루
GR
안부
##얼빈
교도관
리우데자네이루
전문학교
한가득
일깨우
Fri
관성
눈보라
반한
얼떨
집집
탁상
안드로
서려
정당인
하이테크
일기장
동고
선녀
신학교
끌어올린
##줘야
사정거리
Trans
ㆍ재
##교회
아산시
싱크대
##투아니아
달라이
해파리
형세
달라져
휘두른
막사
열강
##통신
피부염
따끔
로널드
베베
알아들
용모
촉박
##onn
다나카
우레
조물
황병
##발력
Star
기름기
경부선
공매
부다
아다
픽션
해충
용선료
누른
지피
##엉이
카메룬
국문학
담지
시우
##농사
스포트라이트
고딕
레노버
손쉬
언데
음절
남서부
IV
##평동
아이구
##ript
she
대혁명
부세
순발력
정감
결의문
시시각각
저수
의료법
pet
라벤
리투아니아
자잘
성취감
선동열
설악
앙겔라
머그
세모
아낄
피부색
물어뜯
Jos
그람
방부
색인
유찰
추려
걸음걸이
남하
룰라
침례
견인차
서기관
친밀감
기립
람보
자장
판매액
안전교육
유례없
Super
솔트
송라이터
##동물
보살핌
얻어먹
가단
동그라
역관
짜장
환송
960
경포
집게
트립
이뤄낸
오랑캐
Free
mph
본업
양악
하얼빈
치러졌
하역
마미
##혜정
Win
but
승천
천적
한텐
##에프
갈구
속칭
의정서
대생
요것
입도
##은혜
넘어간다
싸이월드
##ruct
노영
디비전
말랑
##혈관
##ular
진흥회
달기
도형
마초
Tw
드미
마우
성배
썬더
천수
키위
물러섰
든다고
상민
##전도
플래너
명성황후
스와프
620
이뤄냈
쫓겨났
징검다리
부심
산은
국과수
기암
유커
일교차
파헤쳐
미자
으랴
최준
황보
해리슨
늑장
베컴
설파
꼬막
늦출
바벨
위령
##엔지니어
##타입
관광버스
나왔었
노이즈
미대
주채
ㆍ지
논현동
빙글
소강
##입국
체인점
정병국
million
Kn
양기
쭉쭉
찍혔
미나미
소행성
우윤근
불시
사미
한동
용적률
금천구
독차
바이스
보헤
스펀
흐흐
달라요
헤아려
MI
습니
오웬
임자
조민
##당선
공공연히
프란체
바비큐
총상
##치료
##례문
구릉
토시
호지
##코스터
경제인
박재홍
잿빛
토라
프라이스
글러브
최창
##엔지니어링
강재
롤러코스터
골동품
사림
의술
BNK
특산품
역차별
꽃게
에디터
열등감
제라
미끄러져
목화
##★★
##ello
재추진
켄터키
ii
물고
비안
뜻밖에
Dream
날조
메트
왜군
학당
우주인
예금자
고마워요
##축구협회
모국어
미망인
고쳤
유괴
테네시
##기록
##atic
##each
심재철
묘비
원지
중심축
264
뛰어올랐
유흥업소
그윽
송두리
##보감
Law
벌렸
##기획
심의위
Min
나침
과수원
디너
족쇄
대학살
뒤집기
일색
종금
집행정지
트러스트
무전
밀림
##하하
##예우
254
롯데제과
와이번스
농기계
두레
막차
찰칵
흐지부
##gc
대한축구협회
데려와
비합리
흐지부지
LCC
목덜미
이프
행시
패터슨
백기
총잡이
##트론
##da
갈비뼈
물산
우마
reg
몰아붙
747
DR
마고
식비
워렌
인도인
스토리지
exp
철조망
KN
우경
혼재
229
전관예우
Reg
깔깔
듀엣
예정지
의사당
군포시
경총
차르
패트
스테판
인증서
백승
웅크리
짓눌
최전선
담근
음대
재래식
염분
옷감
243
태양열
뒤섞여
어렴풋이
형이상학
젖소
동진
부린
세레
스캇
식음료
불모
자욱
항고
카톨릭
##이치로
레베카
포커
홍합
화환
총격전
School
안행
##전입
242
살아난
ISD
내리막길
요충지
영접
텀블러
학관
##개혁
그리곤
전체주의
김관용
먹혀
식히
ARS
##ulture
리노
하츠
넘쳤
선결
##ures
유니버스
쿨링
끌어올려
라울
유제품
주미
325
서프라이즈
각주
앵무새
차일
복병
핫도그
어그
기염
당락
목도
우자의
두근두근
과수
조깅
그리구
9500
유유히
sel
뇌출혈
##셉션
조용필
와이브로
끌려갔
가감
내미
전소
에스티
위장전입
빙자
손맛
국민학교
필로폰
Korean
LC
준위
통업
야생화
삼월
오릭스
##렴치
방어구
##aper
쫓겨난
워스
탄두
##SI
안내서
apos
손오공
OT
교가
랜스
문집
판자
빌헬름
봉안
전미
정크
조강
족장
겨루기
식견
##독부
265
007
섹터
옴니
홍어
컨테이너선
중턱
미술사
##사관학교
selfie
장석
지랄
해봐
유산소
심포니
Dem
기특
케이지
후각
우성
장문
파렴치
##티나무
문화사
독차지
금할
##슬기
상징물
제트기
모듬
여라
착지
푸시
동물보호
곡면
하치
##ling
##yp
241
치러질
EG
She
로베르
립니
강남스타일
떡국
일거리
흥겨운
##시타
가로채
삼청동
경무
두텁
##소싱
##승차
열대야
Mac
pc
겨레
류성
호령
George
알약
총합
##기수
베이비붐
양육권
식인
소리야
##브리지
응급처치
그친다
변칙
언저리
준법
부차
불미
##mar
##우회
맛깔
##전환
##애애
동그라미
버러
벤자
사보
오솔
제레미
her
공국
예문
유량
겸한
손석희
##리니스트
들여온
로젠
생산직
아웃소싱
다름아닌
바이올리니스트
덜컥
이길
홀더
다수당
연남동
인장
불리우
What
고동
하객
##조심
##스카라
속삭였
근저당
사포
철자
라이브러리
경솔
꺼낼
친수
따라갔
토론자
다이노스
내겐
추인
헌트
instaf
주안점
과식
꽃밭
논거
느티나무
닭발
디에고
##현주
루스벨트
미역국
리키
메탄
탄자
##해졌
상대편
보내온
더니만
대니얼
안습
주막
겨드랑이
가둬
무릇
최단
투싼
푸조
##완전
##ander
life
이에
앞선다
고인돌
ㆍ시
여제
런닝맨
MO
##디슨
##다랗
어서요
브러시
라일
받치
짱짱
##뮬러
236
밝혀질
스파이크
미시시피
국론
뉴딜
서빙
대립각
명문화
찮은
##ㅜㅜ
##디트
##ection
신제
행주
##리니
##짓기
##가방
##개토
시스코
대전차
둘러본
GW
검은
고철
벌판
요율
발주자
문하
전갈
후천
물증
샤인
##짜고
1880
여행기
기초자치단체
유행어
Polit
담아낸
변별력
광개토
다짜고
오트
컵라면
감사원장
다짜고짜
강함
꺼진
모회사
배속
천동
과밀
답지
덩이
등원
범한
순리
후루
이코노미
갈렸
양안
원구
휴즈
마르셀
맞춘다
장학사
다신
강민호
외가
지어야
뮤지엄
에릭슨
거하
혜화
##ground
##치오
display
초판
알로에
개구
가려져
일렉트릭
소공동
Ben
심지
천박
NL
물병
##아내리
die
생육
##투표
데르
불이행
정혜
토큰
##흡연
##투합
의기투합
화기애애
롯데케미칼
##rib
거로
##융합
불러온
힌두교
병신
사족
유탄
희열
가재
마호
영희
돌려보냈
ma
ㆍ외
세끼
신파
##사회
##TR
차려입
크리에이터
공병
당인
마두
취의
헤게
##죽순
불러도
소매업
후임자
잊혀진
손쉬운
홍상
##각시
드라이빙
철거민
라프
류승
세태
협력체
렌지
차로
##EZ
이사로
주체사상
공포증
암각화
다도
조련
##HC
꿀꺽
영자
철권
칼빈
포이
SPA
우후죽순
꾸러미
밥솥
순양함
자연주의
285
IDC
광안리
JYP
스크립트
피나
남동부
내라
망해
입영
정철
북서부
웅변
초나라
광구
포만
푸딩
##빠진
##ense
건의안
##unt
신라호텔
오솔길
Pat
리우스
서둘러야
배설물
감출
석류
호미
예배당
싱크로
한민구
EM
버진
승급
##칠리아
경험담
올레드
리커창
준이
숙녀
자괴
편백
##PI
##와라
##치우
더치
정안
헌납
지하드
박연차
향교
김동현
스필
장유
합세
자기장
1903
플루토늄
요람
지남
청부
평탄
##수소
밀리언
Ang
느릿
씹히
쭈꾸미
촉감
황새
이민호
흥국생명
손아귀
찢어진
톱니
햄릿
국민주
한낱
연설문
당해서
대연
돌린다
최은
황룡
237
가려내
언데드
불협
정변
홈스
##isch
북면
송광
스즈
앨라
엑셀
장상
타일러
##순위
신분당선
날아온
순교자
변협
수자
현아
##수아비
구불
우이
허수아비
##업체
그리핀
증거물
잠재성
호세프
교무
니스트
로코
이레
브레이커
스칼렛
명언
별일
카밀
호명
통제력
쏟아진
Best
von
구소
귀퉁이
산상
강화도
조바
폐회
혈안
홍종
황무지
게르만
NX
Out
환태평양
시험지
정홍원
바쿠
자두
철기
테디
할매
에이커
표고버섯
볼게요
저온
퍼플
501
금메달리스트
##ERS
Hot
pat
결계
단념
삼중
매운탕
박희태
Martin
KI
격변
윗사람
겁먹
뇌혈관
다지기
역전패
경찰차
가느다란
완비
출판물
랜턴
순손실
##케이드
거름
매끄러운
충치
##통행
환경청
추앙
##배마
크림치즈
교총
비엔나
kn
숭례문
##캐롤
독립군
스크래
프랜시스
수강료
서자
카트리
티타
호봉
혁명가
상암동
순창
절기
티모
##부산
트레이딩
국소
슬래
타쿠
##ju
강화군
아스카
이병철
약해진
벌거벗
교학사
앨라배마
들으니
목마
보냅니다
정공
충신
포뮬러
표범
over
검소
해서인지
user
평균치
양평군
피조물
PL
개악
펠레
글로브
드나드
한빛
##pa
들러리
촉수
투지
최고령
880
htm
지른다
중심가
1897
박미
손연재
약도
창세기
파이트
바이든
광역자치단체
신진대사
820
육즙
##랑스
크리스털
월화드라마
강영
네바다
독서실
##캐롤라이나
불완전
석굴
솜방망이
철탑
화창
##궐선거
데려갔
굴려
눈꽃
순국
아이다
##ada
벌어들이
거역
질지
한다던
국무원
만과
인품
할래
##준혁
관리원
관찰자
루비오
뒷걸음질
카렌
자투리
지현
##wood
조선사
두려워했
instafood
늘린다
일문
철갑
보신
절전
아이젠
김광석
동로
목살
건너갔
헤게모니
능통
부질
앞마당
합금
올랐으며
align
로페즈
cap
기러기
머슴
1901
베르디
포도당
거려
김택
방배
송중기
쉬우
##ude
애국자
Frank
엉엉
올랜
윈스턴
티몬
할까봐
왁스
익힐
행복감
국자
로어
샤브
##블리
쌀값
##gan
개선책
안정세
살아났
표준어
어떨지
천변
프린스턴
눈여겨볼
지렛
전횡
##샤브
상장지수
유언비어
안다는
##EM
##읽기
새로움
공민왕
구전
금동
장항
준동
가까워졌
뜨리
민폐
방바닥
했잖아
나타납니다
LIVE
수작업
억양
지겹
콘돔
##충류
냉동실
조두
여태껏
Sum
거슬리
귀로
비뚤
상견
SLBM
구문
도이치
수준급
상실감
마누엘
보청기
김건
삼켰
넘어져
공산품
주경
착용감
야시
차창
하세
지렛대
격자
벅차
##시네마
##당당
##잘것
마주친
표기법
우대금리
라티
매연
##래기
##ities
지휘부
관능
쓰라
##소녀
##시원
##포화
##고스
공연히
떠나가
시달려
날아간
검경
북항
##EF
##지막
##왕산
3400
갈취
살인마
칭다오
플레인
##경궁
트랙터
불협화
고여
세나
##방아
##내티
여백
원양
수입액
Cop
민가
예뻤
인멸
정색
##게트
금지령
크리스천
골칫거리
소림
사인회
고마웠
김신욱
IFA
지른
처마
척박
프롬
연극제
체크인
Center
굉음
##지긋
##꾸러기
251
드라마틱
청소년기
워크래프트
지긋지긋
TA
게야
은색
##ift
옥스포드
Die
맹비
풀밭
학제
히카
##혀서
##iter
BSI
act
성물
철인
홈구장
탱탱
감점
들썩이
아재
지참
##면은
저항력
재결합
교육법
바르샤바
990
조리법
섬멸
알맹이
아브
악질
야겠다
POS
도통
돈가스
뺏기
##홀름
가져온다
수비진
최문순
Instit
심술
토건
통닭
##go
##저만
Stev
아지트
생포
##탐정
체납자
Business
대어
뒷골목
뱃길
사귄
호치
데뷔작
박진영
Mor
소임
심취
730
신시내티
나부
냅니다
요식
직불
추사
한다든가
Research
방아쇠
짜내
##섬유
롯데시네마
사직서
공심
오뎅
바르트
바지락
금관
단전
셀레
수북
조재
세계무역
나선다는
API
관원
첫선
최남
하루카
박탈감
외래어
##특별자치
항시
행패
##ider
실명제
만무
변천
호들
##연수
딜런
마티스
산삼
##서양
##예진
콘서트홀
갖춰진
이만저만
동속
억눌
생색
송호
카네기
주정차
Big
경외
독대
볼모
팔아먹
걷어차
로스터
생년
수채
요강
주어져
팔릴
공공성
브리튼
금색
이바
진땀
키운다
히사
##메이드
수비대
지용
캘리
av
강창
애경
조선총
보증서
벤자민
##특별자치도
만호
가라앉히
생태학
중개인
고우
자금력
라이드
대첩
산시
오답
김흥
##거릴
학습지
##사이어티
뼈아픈
Gold
몰의
아용
체이스
장기전
지명자
터치스크린
맹비난
에쿠스
주현
##적ㆍ
1902
불거질
터프
프리드
아웃렛
독학
미각
알갱이
호찌
샤이니
마스카라
였을까
지영
혹자
혈액형
수소문
려구요
매크로
석양
노무라
아수라장
속히
행실
물살
아워
자장면
전치
던지라
몰아붙이
AL
우사
방어선
편안히
잠자코
조선총독부
붙인다
어려운데
김영우
##ird
DSLR
리무진
##수사
제주특별자치도
망가진
어획량
대양
대견
집사람
우선주
재단법인
상륙작전
산체스
개강
산화물
유분
##헤이
빨라졌
넉넉히
Science
플렉
스키니
씨씨
##투어
상대국
Af
뒷돈
맹주
미코
약과
철쭉
넘어졌
소방방
냉랭
용해
조수석
소사이어티
채워진
라돈
아십니까
지훈
수행원
기싸움
양회
##동아
##투사
비니
빌려서
음파
읍성
장주
진피
247
슬로우
방석
정발
투고
테크윈
망쳐
버립니다
타미
세무사
pop
골리
당구
도농
성교
조타
머무를
벌점
유식
나빠질
로드리게스
레일리
유림
##사건
##리온
##베니아
중대장
샤브샤브
삭발
원당
자란다
잘리
체어
자동변속기
레이팅
DGB
해약
##두라스
##페르
가속기
스크래치
맞잡
부마
아파하
보드게임
놓아주
논할
북송
익살
쾌속
폐광
##인드
##확산
약혼자
다움
빠를
창안
판매원
부대시설
넘겨졌
막연히
아린
조난
귀여움
나츠
비야
심대
양고기
히가시
##다닌
뉴스쇼
싫증
제이콥
수목드라마
대경
문형
온두라스
하품
훈제
##테말라
가스공사
매표소
과테말라
저층
큰딸
##어낸
기말고사
대산
실격
팽이
예선전
파고드
총영사관
일요
##합성
몸뚱이
댈러스
동수
밀매
입회
코웨이
더빙
사력
청해
튤립
기록원
Adv
살생
소기업
아델
운다
이항
##ayer
고라
정족
태웠
스톡홀름
검지
까르
노마
누계
만부
목도리
식상
큰데
클락
슬로베니아
적대감
냐구
아성
임대인
기동력
비열한
일갈
증조
충의
해봐도
375
김종훈
영동고속도로
Tel
볼프
유조선
윤재
함흥
돌아볼
원주시
레나
사청
연거
지쳤
진정서
화학제품
피란
더샵
빌어먹
여리
체급
소방대원
##msys
ldmsys
디제이
우거진
하승
힘듭니다
어젠
참나무
자연사
유치장
가르친다
격앙
날아들
다빈
책략
황성
예방법
##ental
대대장
정찰기
QR
머드
명종
##급수
버크셔
HSBC
광년
빈다
핍박
히터
천일염
에베레스트
##잘것없
King
감방
군무
우빈
움찔
외식업
감췄
성진
이아
##시아드
##보험공사
칭기즈
레그
실학
종대
헤드셋
나탈
지동원
추어
##omen
스토커
김동철
불명확
동방신기
카디프
CL
XP
갓난
##오래
##경정
어울렸
김용태
탈의실
윤창중
디어
민국
긴급조치
어려워진다
유니버시아드
스기
오묘
투혼
핀잔
한국학
##스토이
EPL
담벼락
바게트
유별
의료기
3700
프라이팬
피크닉
이근호
산자
살려야
스포일러
신용장
김여정
지론
##수스
##빼미
중견수
역주행
세면
송혜
##ives
가동이
불꽃놀이
검정고시
시커먼
목판
조한
청혼
##bid
여객철도
신비주의
──
도예
불어난
전군
##공산
마셔야
ah
노랗
법전
탈해
후사
이슬람교도
슬라이딩
감싼
규합
급체
상암
와사
후광
강력범
대장군
분당선
김두한
##unication
걸터
마천
서연
초도
환관
영의정
길잡이
다트
보그
제원
##플랜
기지개
스피어
웨이보
페더러
박헌
##ration
cit
록히드
##체육회
넘친다
산기
큼지막
허겁
지나쳤
스트라
에어부산
군소
끓어
반목
잠옷
하시모토
png
내연
니나
아와
으쓱
통고
##정신
붉히
터뜨려
재보궐선거
아킬레스
고토
텐센트
튜버
##들러
##장성
다녀갔
어슬
져요
접착제
Charles
군국주의
BW
모일
합심
해트
직업훈련
어려워진
브룩스
Public
액상
야시장
척이
코일
투철
낙담
현은
##계리
상담소
임창용
헌팅
##콘서트
지나간다
상고심
낸다고
맥박
조슈
탈주
단일화
침체기
비보
빛내
효의
노브
땅굴
번질
##구미
간병인
심해질
상견례
PG
##성대
##도사
벗겨지
조윤선
빅스
248
뜨개
생화학
##BO
랴오닝
꼬꼬
린을
서린
총명
흉부
양재동
ㆍ현
고환
디카
제이크
린드
코니
##타카
정책금융
추모식
고무줄
곁들인
량도
무정부
영생
올빼미
305
##aint
##ittle
font
따듯
술병
음질
##둘렀
조선대
집어던
여호와
##경정예산
범벅
비이
안아
착실
칠리
오래오래
따님
스왑
##충돌
보여줘
김기현
김응
력도
직분
##노조
반딧
선택제
빼돌려
우익수
정우택
잡이
철없
혹사
후라이
추가경정예산
비상시
부자연
재소자
Just
가망
선미
은영
주다
파충류
판화
##오버
##튀기
졸업장
하이데거
방파제
수매
악랄
원미
전초
무한히
소모품
발색
취침
##아산
##느니
##럭스
퇴근길
태만
지평선
담대
점자
810
if
득세
로데
어겼
폭죽
##유진
##픽스
##ember
집권당
소모량
주사기
굶주린
호들갑
깨어났
부교
비쌌
신구
##분계선
보수파
4200
OCI
양희
저고리
터리
이니셜
동공
명복
홍정
불상사
Cre
개비
면목
월트
군사분계선
흘러갔
순환도로
시어터
패권주의
전업주부
뻥튀기
심해서
약했
편할
##aff
괴짜
괴뢰
임모
진기
허황
인신매매
스펜서
리볼
으십시오
궁예
떠넘
방음
##메트
확인서
안기부
우릴
##통장
굴러가
Ber
먹인
추동
288
이재현
##샤오핑
뚝배기
우시
총무원
핵융합
사이렌
하태경
##민정음
Not
환멸
315
빼돌리
임종룡
나침반
빗자루
셨잖아요
승하
해조류
스웨터
##국사
내야수
간도
박히
성현
수형
아전
알자
임수
##불성
해진다는
덩샤오핑
군락
봉하
세실
##지겁
취업규칙
이겨낼
허겁지겁
비버
핫라인
대항마
바퀴벌레
등기부
항공우주국
임계
##타스
IMG
고조선
두만강
sim
상존
쌍방향
탕진
##ecial
띤다
영제
을지라도
건조기
영재교육
꼭두각시
구울
마귀
쁘띠
숙고
채광
황이
신문지
저기압
되묻
반나절
톨스토이
트릴
##블릭
호스피스
해부학
성악가
달려드
주방장
스티븐스
고품격
왕인
왠만
훈민정음
##클라
비린내
빈스
장률
하디
향할
740
뒷바라지
##월일
053
되살려
기보다는
뒤집어쓰
강용석
변속
소추
해맑
##캠프
##enz
마가렛
면사무소
사르트르
서툰
2900
##ets
특수강
Lee
경내
누룽지
루미
빨치산
시위자
장제스
Windows
##세종청사
축협
##세프
탐험가
칠곡군
##field
정부세종청사
불협화음
don
광풍
전분
##더위
302
내몰리
경운
구보
장바구니
적료
족히
천과
테스코
##뛰기
840
디젤차
일변도
넓힐
누그러
물레
본전
Cons
설경
시월
295
현상학
남상
단선
우열
처한다
##각층
경제난
공장장
둔치
우등
인감
회장단
보관소
산수유
Ma
정각
타이젠
전지현
형부
2023
개척자
각계각층
AN
요게
##elt
보통주
임진강
Pop
뉴트
창인
프랑스군
오브젝트
엑스레이
극진
##그램
금남
시제
옥수
완고
인인
차비
움직인
김강
깐깐
뛴다
뭉개
오진
임이
재미난
문도
선승
임형
##교섭
[NAME]
[RELIGION]
[unused2]
[unused3]
[unused4]
[unused5]
[unused6]
[unused7]
[unused8]
[unused9]
[unused10]
[unused11]
[unused12]
[unused13]
[unused14]
[unused15]
[unused16]
[unused17]
[unused18]
[unused19]
[unused20]
[unused21]
[unused22]
[unused23]
[unused24]
[unused25]
[unused26]
[unused27]
[unused28]
[unused29]
[unused30]
[unused31]
[unused32]
[unused33]
[unused34]
[unused35]
[unused36]
[unused37]
[unused38]
[unused39]
[unused40]
[unused41]
[unused42]
[unused43]
[unused44]
[unused45]
[unused46]
[unused47]
[unused48]
[unused49]
[unused50]
[unused51]
[unused52]
[unused53]
[unused54]
[unused55]
[unused56]
[unused57]
[unused58]
[unused59]
[unused60]
[unused61]
[unused62]
[unused63]
[unused64]
[unused65]
[unused66]
[unused67]
[unused68]
[unused69]
[unused70]
[unused71]
[unused72]
[unused73]
[unused74]
[unused75]
[unused76]
[unused77]
[unused78]
[unused79]
[unused80]
[unused81]
[unused82]
[unused83]
[unused84]
[unused85]
[unused86]
[unused87]
[unused88]
[unused89]
[unused90]
[unused91]
[unused92]
[unused93]
[unused94]
[unused95]
[unused96]
[unused97]
[unused98]
[unused99]
[unused100]
[unused101]
[unused102]
[unused103]
[unused104]
[unused105]
[unused106]
[unused107]
[unused108]
[unused109]
[unused110]
[unused111]
[unused112]
[unused113]
[unused114]
[unused115]
[unused116]
[unused117]
[unused118]
[unused119]
[unused120]
[unused121]
[unused122]
[unused123]
[unused124]
[unused125]
[unused126]
[unused127]
[unused128]
[unused129]
[unused130]
[unused131]
[unused132]
[unused133]
[unused134]
[unused135]
[unused136]
[unused137]
[unused138]
[unused139]
[unused140]
[unused141]
[unused142]
[unused143]
[unused144]
[unused145]
[unused146]
[unused147]
[unused148]
[unused149]
[unused150]
[unused151]
[unused152]
[unused153]
[unused154]
[unused155]
[unused156]
[unused157]
[unused158]
[unused159]
[unused160]
[unused161]
[unused162]
[unused163]
[unused164]
[unused165]
[unused166]
[unused167]
[unused168]
[unused169]
[unused170]
[unused171]
[unused172]
[unused173]
[unused174]
[unused175]
[unused176]
[unused177]
[unused178]
[unused179]
[unused180]
[unused181]
[unused182]
[unused183]
[unused184]
[unused185]
[unused186]
[unused187]
[unused188]
[unused189]
[unused190]
[unused191]
[unused192]
[unused193]
[unused194]
[unused195]
[unused196]
[unused197]
[unused198]
[unused199]
[unused200]
[unused201]
[unused202]
[unused203]
[unused204]
[unused205]
[unused206]
[unused207]
[unused208]
[unused209]
[unused210]
[unused211]
[unused212]
[unused213]
[unused214]
[unused215]
[unused216]
[unused217]
[unused218]
[unused219]
[unused220]
[unused221]
[unused222]
[unused223]
[unused224]
[unused225]
[unused226]
[unused227]
[unused228]
[unused229]
[unused230]
[unused231]
[unused232]
[unused233]
[unused234]
[unused235]
[unused236]
[unused237]
[unused238]
[unused239]
[unused240]
[unused241]
[unused242]
[unused243]
[unused244]
[unused245]
[unused246]
[unused247]
[unused248]
[unused249]
[unused250]
[unused251]
[unused252]
[unused253]
[unused254]
[unused255]
[unused256]
[unused257]
[unused258]
[unused259]
[unused260]
[unused261]
[unused262]
[unused263]
[unused264]
[unused265]
[unused266]
[unused267]
[unused268]
[unused269]
[unused270]
[unused271]
[unused272]
[unused273]
[unused274]
[unused275]
[unused276]
[unused277]
[unused278]
[unused279]
[unused280]
[unused281]
[unused282]
[unused283]
[unused284]
[unused285]
[unused286]
[unused287]
[unused288]
[unused289]
[unused290]
[unused291]
[unused292]
[unused293]
[unused294]
[unused295]
[unused296]
[unused297]
[unused298]
[unused299]
[unused300]
[unused301]
[unused302]
[unused303]
[unused304]
[unused305]
[unused306]
[unused307]
[unused308]
[unused309]
[unused310]
[unused311]
[unused312]
[unused313]
[unused314]
[unused315]
[unused316]
[unused317]
[unused318]
[unused319]
[unused320]
[unused321]
[unused322]
[unused323]
[unused324]
[unused325]
[unused326]
[unused327]
[unused328]
[unused329]
[unused330]
[unused331]
[unused332]
[unused333]
[unused334]
[unused335]
[unused336]
[unused337]
[unused338]
[unused339]
[unused340]
[unused341]
[unused342]
[unused343]
[unused344]
[unused345]
[unused346]
[unused347]
[unused348]
[unused349]
[unused350]
[unused351]
[unused352]
[unused353]
[unused354]
[unused355]
[unused356]
[unused357]
[unused358]
[unused359]
[unused360]
[unused361]
[unused362]
[unused363]
[unused364]
[unused365]
[unused366]
[unused367]
[unused368]
[unused369]
[unused370]
[unused371]
[unused372]
[unused373]
[unused374]
[unused375]
[unused376]
[unused377]
[unused378]
[unused379]
[unused380]
[unused381]
[unused382]
[unused383]
[unused384]
[unused385]
[unused386]
[unused387]
[unused388]
[unused389]
[unused390]
[unused391]
[unused392]
[unused393]
[unused394]
[unused395]
[unused396]
[unused397]
[unused398]
[unused399]
[unused400]
[unused401]
[unused402]
[unused403]
[unused404]
[unused405]
[unused406]
[unused407]
[unused408]
[unused409]
[unused410]
[unused411]
[unused412]
[unused413]
[unused414]
[unused415]
[unused416]
[unused417]
[unused418]
[unused419]
[unused420]
[unused421]
[unused422]
[unused423]
[unused424]
[unused425]
[unused426]
[unused427]
[unused428]
[unused429]
[unused430]
[unused431]
[unused432]
[unused433]
[unused434]
[unused435]
[unused436]
[unused437]
[unused438]
[unused439]
[unused440]
[unused441]
[unused442]
[unused443]
[unused444]
[unused445]
[unused446]
[unused447]
[unused448]
[unused449]
[unused450]
[unused451]
[unused452]
[unused453]
[unused454]
[unused455]
[unused456]
[unused457]
[unused458]
[unused459]
[unused460]
[unused461]
[unused462]
[unused463]
[unused464]
[unused465]
[unused466]
[unused467]
[unused468]
[unused469]
[unused470]
[unused471]
[unused472]
[unused473]
[unused474]
[unused475]
[unused476]
[unused477]
[unused478]
[unused479]
[unused480]
[unused481]
[unused482]
[unused483]
[unused484]
[unused485]
[unused486]
[unused487]
[unused488]
[unused489]
[unused490]
[unused491]
[unused492]
[unused493]
[unused494]
[unused495]
[unused496]
[unused497]
[unused498]
[unused499]
[unused500]
[unused501]
[unused502]
[unused503]
[unused504]
[unused505]
[unused506]
[unused507]
[unused508]
[unused509]
[unused510]
[unused511]
[unused512]
[unused513]
[unused514]
[unused515]
[unused516]
[unused517]
[unused518]
[unused519]
[unused520]
[unused521]
[unused522]
[unused523]
[unused524]
[unused525]
[unused526]
[unused527]
[unused528]
[unused529]
[unused530]
[unused531]
[unused532]
[unused533]
[unused534]
[unused535]
[unused536]
[unused537]
[unused538]
[unused539]
[unused540]
[unused541]
[unused542]
[unused543]
[unused544]
[unused545]
[unused546]
[unused547]
[unused548]
[unused549]
[unused550]
[unused551]
[unused552]
[unused553]
[unused554]
[unused555]
[unused556]
[unused557]
[unused558]
[unused559]
[unused560]
[unused561]
[unused562]
[unused563]
[unused564]
[unused565]
[unused566]
[unused567]
[unused568]
[unused569]
[unused570]
[unused571]
[unused572]
[unused573]
[unused574]
[unused575]
[unused576]
[unused577]
[unused578]
[unused579]
[unused580]
[unused581]
[unused582]
[unused583]
[unused584]
[unused585]
[unused586]
[unused587]
[unused588]
[unused589]
[unused590]
[unused591]
[unused592]
[unused593]
[unused594]
[unused595]
[unused596]
[unused597]
[unused598]
[unused599]
[unused600]
[unused601]
[unused602]
[unused603]
[unused604]
[unused605]
[unused606]
[unused607]
[unused608]
[unused609]
[unused610]
[unused611]
[unused612]
[unused613]
[unused614]
[unused615]
[unused616]
[unused617]
[unused618]
[unused619]
[unused620]
[unused621]
[unused622]
[unused623]
[unused624]
[unused625]
[unused626]
[unused627]
[unused628]
[unused629]
[unused630]
[unused631]
[unused632]
[unused633]
[unused634]
[unused635]
[unused636]
[unused637]
[unused638]
[unused639]
[unused640]
[unused641]
[unused642]
[unused643]
[unused644]
[unused645]
[unused646]
[unused647]
[unused648]
[unused649]
[unused650]
[unused651]
[unused652]
[unused653]
[unused654]
[unused655]
[unused656]
[unused657]
[unused658]
[unused659]
[unused660]
[unused661]
[unused662]
[unused663]
[unused664]
[unused665]
[unused666]
[unused667]
[unused668]
[unused669]
[unused670]
[unused671]
[unused672]
[unused673]
[unused674]
[unused675]
[unused676]
[unused677]
[unused678]
[unused679]
[unused680]
[unused681]
[unused682]
[unused683]
[unused684]
[unused685]
[unused686]
[unused687]
[unused688]
[unused689]
[unused690]
[unused691]
[unused692]
[unused693]
[unused694]
[unused695]
[unused696]
[unused697]
[unused698]
[unused699]
[unused700]
[unused701]
[unused702]
[unused703]
[unused704]
[unused705]
[unused706]
[unused707]
[unused708]
[unused709]
[unused710]
[unused711]
[unused712]
[unused713]
[unused714]
[unused715]
[unused716]
[unused717]
[unused718]
[unused719]
[unused720]
[unused721]
[unused722]
[unused723]
[unused724]
[unused725]
[unused726]
[unused727]
[unused728]
[unused729]
[unused730]
[unused731]
[unused732]
[unused733]
[unused734]
[unused735]
[unused736]
[unused737]
[unused738]
[unused739]
[unused740]
[unused741]
[unused742]
[unused743]
[unused744]
[unused745]
[unused746]
[unused747]
[unused748]
[unused749]
[unused750]
[unused751]
[unused752]
[unused753]
[unused754]
[unused755]
[unused756]
[unused757]
[unused758]
[unused759]
[unused760]
[unused761]
[unused762]
[unused763]
[unused764]
[unused765]
[unused766]
[unused767]
[unused768]
[unused769]
[unused770]
[unused771]
[unused772]
[unused773]
[unused774]
[unused775]
[unused776]
[unused777]
[unused778]
[unused779]
[unused780]
[unused781]
[unused782]
[unused783]
[unused784]
[unused785]
[unused786]
[unused787]
[unused788]
[unused789]
[unused790]
[unused791]
[unused792]
[unused793]
[unused794]
[unused795]
[unused796]
[unused797]
[unused798]
[unused799]
[unused800]
[unused801]
[unused802]
[unused803]
[unused804]
[unused805]
[unused806]
[unused807]
[unused808]
[unused809]
[unused810]
[unused811]
[unused812]
[unused813]
[unused814]
[unused815]
[unused816]
[unused817]
[unused818]
[unused819]
[unused820]
[unused821]
[unused822]
[unused823]
[unused824]
[unused825]
[unused826]
[unused827]
[unused828]
[unused829]
[unused830]
[unused831]
[unused832]
[unused833]
[unused834]
[unused835]
[unused836]
[unused837]
[unused838]
[unused839]
[unused840]
[unused841]
[unused842]
[unused843]
[unused844]
[unused845]
[unused846]
[unused847]
[unused848]
[unused849]
[unused850]
[unused851]
[unused852]
[unused853]
[unused854]
[unused855]
[unused856]
[unused857]
[unused858]
[unused859]
[unused860]
[unused861]
[unused862]
[unused863]
[unused864]
[unused865]
[unused866]
[unused867]
[unused868]
[unused869]
[unused870]
[unused871]
[unused872]
[unused873]
[unused874]
[unused875]
[unused876]
[unused877]
[unused878]
[unused879]
[unused880]
[unused881]
[unused882]
[unused883]
[unused884]
[unused885]
[unused886]
[unused887]
[unused888]
[unused889]
[unused890]
[unused891]
[unused892]
[unused893]
[unused894]
[unused895]
[unused896]
[unused897]
[unused898]
[unused899]
[unused900]
[unused901]
[unused902]
[unused903]
[unused904]
[unused905]
[unused906]
[unused907]
[unused908]
[unused909]
[unused910]
[unused911]
[unused912]
[unused913]
[unused914]
[unused915]
[unused916]
[unused917]
[unused918]
[unused919]
[unused920]
[unused921]
[unused922]
[unused923]
[unused924]
[unused925]
[unused926]
[unused927]
[unused928]
[unused929]
[unused930]
[unused931]
[unused932]
[unused933]
[unused934]
[unused935]
[unused936]
[unused937]
[unused938]
[unused939]
[unused940]
[unused941]
[unused942]
[unused943]
[unused944]
[unused945]
[unused946]
[unused947]
[unused948]
[unused949]
[unused950]
[unused951]
[unused952]
[unused953]
[unused954]
[unused955]
[unused956]
[unused957]
[unused958]
[unused959]
[unused960]
[unused961]
[unused962]
[unused963]
[unused964]
[unused965]
[unused966]
[unused967]
[unused968]
[unused969]
[unused970]
[unused971]
[unused972]
[unused973]
[unused974]
[unused975]
[unused976]
[unused977]
[unused978]
[unused979]
[unused980]
[unused981]
[unused982]
[unused983]
[unused984]
[unused985]
[unused986]
[unused987]
[unused988]
[unused989]
[unused990]
[unused991]
[unused992]
[unused993]
[unused994]
[unused995]
[unused996]
[unused997]
[unused998]
[unused999]